0013
0000
0000
0000
002c
000d
000a
0036
0010
0046
005c
005c
ff9c
0001
0000
0000
004e
0004
0000
0000
0038
002c
000d
000a
0000
0000
0000
0000
0000
0000
0000
0000
0013
0000
0000
0000
0037
002c
000d
000a
0030
0046
005c
005c
ff9c
0001
0000
0000
004d
0004
0000
0000
000d
000a
0035
0033
0000
0000
0000
0000
0000
0000
0000
0000
0013
0000
0000
0000
002c
000d
000a
0037
0050
0046
005c
005c
ff9c
0001
0000
0000
004b
0004
0000
0000
0039
0039
002c
000d
0000
0000
0000
0000
0000
0000
0000
0000
0013
0000
0000
0000
0032
002c
000d
000a
0070
0046
005c
005c
ff9c
0001
0000
0000
0038
0004
0000
0000
002d
0032
0030
002c
0000
0000
0000
0000
0000
0000
0000
0000
0013
0000
0000
0000
002d
0032
0038
002c
ff90
0046
005c
005c
ff9c
0001
0000
0000
0037
0004
0000
0000
0032
002c
000d
000a
0000
0000
0000
0000
0000
0000
0000
0000
0013
0000
0000
0000
002c
000d
000a
0032
ffb0
0046
005c
005c
ff9c
0001
0000
0000
0036
0004
0000
0000
0039
002c
000d
000a
0000
0000
0000
0000
0000
0000
0000
0000
0013
0000
0000
0000
0035
002c
000d
000a
ffd0
0046
005c
005c
ff9c
0001
0000
0000
002a
0004
0000
0000
000d
000a
002d
0032
0000
0000
0000
0000
0000
0000
0000
0000
0013
0000
0000
0000
000d
000a
002d
0036
fff0
0046
005c
005c
ff9c
0001
0000
0000
0024
0004
0000
0000
000d
000a
0036
002c
0000
0000
0000
0000
0000
0000
0000
0000
0013
0000
0000
0000
0031
0037
002c
000d
0010
0047
005c
005c
ff9c
0001
0000
0000
fff2
0003
0000
0000
000d
000a
0031
0031
0000
0000
0000
0000
0000
0000
0000
0000
0013
0000
0000
0000
000a
002d
0038
002c
0030
0047
005c
005c
ff9c
0001
0000
0000
0003
0000
0000
0000
0000
0000
0000
0000
0000
001f
005b
005c
ff9c
0001
0000
0000
0028
0026
005b
005c
ff9c
0001
0000
0000
ff80
0032
005b
005c
ff9c
0001
0000
0000
ff92
0004
0000
0000
000d
000a
002d
0031
0070
0047
005c
005c
ff9c
0001
0000
0000
0013
0000
0000
0000
000a
002d
0035
002c
ffe0
001e
005b
005c
ff9c
0001
0000
0000
0003
0000
0000
0000
0000
0000
0000
0000
ff98
001e
005b
005c
ff9c
0001
0000
0000
ffc0
0025
005b
005c
ff9c
0001
0000
0000
0018
0032
005b
005c
ff9c
0001
0000
0000
0001
0000
0000
0000
002c
000d
000a
0033
ffb0
0047
005c
005c
ff9c
0001
0000
0000
0000
0000
0000
0000
0000
0000
0000
0000
002c
000d
000a
0036
002c
000d
000a
0037
002c
000d
000a
0038
002c
000d
000a
002d
0032
0037
002c
000d
000a
0031
002c
000d
000a
002d
0036
002c
000d
000a
002d
0032
0030
002c
000d
000a
002d
0034
002c
000d
000a
0031
0039
002c
000d
000a
002d
0031
0036
002c
000d
000a
0032
002c
000d
000a
0034
002c
000d
000a
0034
002c
000d
000a
0034
002c
000d
000a
002d
0038
0032
002c
000d
000a
002d
0031
0032
0037
002c
000d
000a
0032
0031
002c
000d
000a
0031
0039
002c
000d
000a
0037
002c
000d
000a
002d
0031
0030
002c
000d
000a
0031
0035
002c
000d
000a
0031
0034
002c
000d
000a
002d
0037
002c
000d
000a
002d
0036
002c
000d
000a
002d
0033
0035
002c
000d
000a
002d
0037
002c
000d
000a
002d
0036
002c
000d
000a
0032
0031
002c
000d
000a
0033
0036
002c
000d
000a
0039
002c
000d
000a
002d
0034
002c
000d
000a
0038
002c
000d
000a
002d
0032
002c
000d
000a
0031
0030
002c
000d
000a
002d
0032
002c
000d
000a
0031
0034
002c
000d
000a
002d
0037
002c
000d
000a
0039
002c
000d
000a
002d
0031
0033
002c
000d
000a
0031
002c
000d
000a
0031
0039
002c
000d
000a
0031
0031
002c
000d
000a
0031
0030
002c
000d
000a
0036
002c
000d
000a
002d
0035
002c
000d
000a
0033
002c
000d
000a
002d
0031
0030
0035
002c
000d
000a
002d
0039
0030
002c
000d
000a
0031
0030
002c
000d
000a
0031
002c
000d
000a
0032
002c
000d
000a
002d
0035
002c
000d
000a
002d
0034
002c
000d
000a
002d
0032
002c
000d
000a
0039
002c
000d
000a
0030
002c
000d
000a
0031
0033
002c
000d
000a
002d
0031
0036
002c
000d
000a
002d
0038
002c
000d
000a
002d
0033
002c
000d
000a
002d
0031
0030
0030
002c
000d
000a
0032
002c
000d
000a
0031
002c
000d
000a
002d
0032
002c
000d
000a
002d
0039
0036
002c
000d
000a
0039
002c
000d
000a
0031
0030
002c
000d
000a
002d
0031
0037
002c
000d
000a
002d
0032
0030
002c
000d
000a
0031
002c
000d
000a
0036
002c
000d
000a
0031
002c
000d
000a
0031
0036
002c
000d
000a
002d
0033
002c
000d
000a
002d
0037
002c
000d
000a
002d
0033
002c
000d
000a
0031
002c
000d
000a
0038
002c
000d
000a
002d
0032
0038
002c
000d
000a
002d
0038
002c
000d
000a
002d
0031
0030
002c
000d
000a
002d
0031
002c
000d
000a
002d
0031
0035
002c
000d
000a
002d
0039
002c
000d
000a
0039
002c
000d
000a
002d
0032
002c
000d
000a
002d
0033
002c
000d
000a
002d
0039
002c
000d
000a
002d
0035
002c
000d
000a
002d
0034
0030
002c
000d
000a
002d
0036
002c
000d
000a
0030
002c
000d
000a
002d
0037
0033
002c
000d
000a
002d
0031
0031
002c
000d
000a
0031
002c
000d
000a
0031
0036
002c
000d
000a
002d
0034
0030
002c
000d
000a
0032
002c
000d
000a
002d
0038
002c
000d
000a
002d
0035
0034
002c
000d
000a
002d
0036
002c
000d
000a
0031
0031
002c
000d
000a
0034
002c
000d
000a
002d
0031
0030
002c
000d
000a
0032
0031
002c
000d
000a
0034
002c
000d
000a
002d
0032
0032
002c
000d
000a
0039
002c
000d
000a
0031
0031
002c
000d
000a
0031
0033
002c
000d
000a
002d
0032
0033
002c
000d
000a
002d
0031
0036
002c
000d
000a
0031
002c
000d
000a
0033
002c
000d
000a
002d
0032
0034
002c
000d
000a
002d
0037
0034
002c
000d
000a
0031
0032
002c
000d
000a
002d
0031
0032
002c
000d
000a
002d
0031
0035
002c
000d
000a
002d
0034
0030
002c
000d
000a
0033
002c
000d
000a
002d
0031
0032
0037
002c
000d
000a
0032
002c
000d
000a
0033
0030
002c
000d
000a
002d
0037
0036
002c
000d
000a
002d
0034
002c
000d
000a
0031
0030
002c
000d
000a
0032
0037
002c
000d
000a
002d
0034
0033
002c
000d
000a
0037
002c
000d
000a
002d
0033
0034
002c
000d
000a
002d
0031
0031
0034
002c
000d
000a
002d
0033
002c
000d
000a
0032
0031
002c
000d
000a
002d
0031
0033
002c
000d
000a
0031
0031
002c
000d
000a
0032
0038
002c
000d
000a
0035
002c
000d
000a
0032
0039
002c
000d
000a
0031
0032
002c
000d
000a
0031
0036
002c
000d
000a
0031
0037
002c
000d
000a
0032
0036
002c
000d
000a
0033
0035
002c
000d
000a
0031
0037
002c
000d
000a
0031
0037
002c
000d
000a
0035
0032
002c
000d
000a
0033
0037
002c
000d
000a
002d
0038
002c
000d
000a
0032
0031
002c
000d
000a
002d
0032
002c
000d
000a
0033
0035
002c
000d
000a
0031
0030
002c
000d
000a
0039
0030
002c
000d
000a
002d
0033
0038
002c
000d
000a
002d
0032
0039
002c
000d
000a
0032
0039
002c
000d
000a
0037
002c
000d
000a
0032
002c
000d
000a
002d
0031
0032
002c
000d
000a
0031
0030
002c
000d
000a
0031
0036
002c
000d
000a
0033
0035
002c
000d
000a
0035
0033
002c
000d
000a
0033
0036
002c
000d
000a
0035
002c
000d
000a
002d
0034
0036
002c
000d
000a
0039
002c
000d
000a
0036
002c
000d
000a
002d
0031
0031
002c
000d
000a
0031
002c
000d
000a
002d
0036
002c
000d
000a
002d
0031
0031
002c
000d
000a
002d
0037
002c
000d
000a
0033
0036
002c
000d
000a
0037
0032
002c
000d
000a
002d
0036
002c
000d
000a
0030
002c
000d
000a
0034
0031
002c
000d
000a
0032
0032
002c
000d
000a
002d
0032
0034
002c
000d
000a
002d
0031
0032
002c
000d
000a
0031
0030
002c
000d
000a
0031
0038
002c
000d
000a
0036
002c
000d
000a
0036
0033
002c
000d
000a
002d
0035
0034
002c
000d
000a
002d
0032
0030
002c
000d
000a
0036
0036
002c
000d
000a
002d
0033
002c
000d
000a
002d
0035
0037
002c
000d
000a
002d
0032
0036
002c
000d
000a
0032
0033
002c
000d
000a
0030
002c
000d
000a
0039
002c
000d
000a
0035
0035
002c
000d
000a
0031
0035
002c
000d
000a
002d
0032
0033
002c
000d
000a
002d
0034
002c
000d
000a
002d
0031
0038
002c
000d
000a
002d
0031
0034
002c
000d
000a
002d
0038
002c
000d
000a
002d
0032
0037
002c
000d
000a
002d
0034
0033
002c
000d
000a
002d
0034
0039
002c
000d
000a
002d
0033
0038
002c
000d
000a
0036
0036
002c
000d
000a
0039
0033
002c
000d
000a
002d
0038
0039
002c
000d
000a
002d
0034
0039
002c
000d
000a
0031
0032
002c
000d
000a
0036
0035
002c
000d
000a
002d
0036
0035
002c
000d
000a
002d
0039
0032
002c
000d
000a
0032
0038
002c
000d
000a
002d
0031
0035
002c
000d
000a
002d
0036
002c
000d
000a
0037
0037
002c
000d
000a
002d
0032
0038
002c
000d
000a
002d
0039
0032
002c
000d
000a
0032
0036
002c
000d
000a
002d
0034
002c
000d
000a
002d
0031
0033
002c
000d
000a
002d
0038
0036
002c
000d
000a
0038
002c
000d
000a
002d
0035
002c
000d
000a
002d
0031
0030
002c
000d
000a
0031
0032
0037
002c
000d
000a
0031
0035
002c
000d
000a
002d
0036
0035
002c
000d
000a
0037
0035
002c
000d
000a
002d
0038
0036
002c
000d
000a
0032
0039
002c
000d
000a
0031
0032
002c
000d
000a
002d
0036
0034
002c
000d
000a
002d
0037
0039
002c
000d
000a
002d
0031
0032
0037
002c
000d
000a
002d
0034
0038
002c
000d
000a
0030
002c
000d
000a
0037
0036
002c
000d
000a
002d
0035
0037
002c
000d
000a
002d
0039
0036
002c
000d
000a
002d
0032
0035
002c
000d
000a
0036
0032
002c
000d
000a
0038
0031
002c
000d
000a
002d
0031
0032
0030
002c
000d
000a
0032
0030
002c
000d
000a
0037
0035
002c
000d
000a
002d
0031
0031
002c
000d
000a
0034
0037
002c
000d
000a
002d
0032
0031
002c
000d
000a
002d
0034
002c
000d
000a
002d
0035
0031
002c
000d
000a
0035
0038
002c
000d
000a
002d
0037
0032
002c
000d
000a
0033
0030
002c
000d
000a
0033
0032
002c
000d
000a
002d
0035
002c
000d
000a
002d
0036
0035
002c
000d
000a
0031
0039
002c
000d
000a
002d
0036
0034
002c
000d
000a
002d
0038
0034
002c
000d
000a
0036
0035
002c
000d
000a
002d
0037
0039
002c
000d
000a
0037
0032
002c
000d
000a
002d
0032
0037
002c
000d
000a
002d
0031
0033
002c
000d
000a
002d
0032
0033
002c
000d
000a
0031
002c
000d
000a
002d
0039
0035
002c
000d
000a
002d
0036
002c
000d
000a
002d
0032
002c
000d
000a
002d
0032
0033
002c
000d
000a
0031
0036
002c
000d
000a
0034
002c
000d
000a
002d
0033
002c
000d
000a
0032
0039
002c
000d
000a
002d
0036
0038
002c
000d
000a
002d
0035
0032
002c
000d
000a
002d
0034
0033
002c
000d
000a
002d
0035
0036
002c
000d
000a
002d
0035
0031
002c
000d
000a
002d
0039
0036
002c
000d
000a
0034
0035
002c
000d
000a
0037
0030
002c
000d
000a
002d
0031
0030
0036
002c
000d
000a
002d
0035
0033
002c
000d
000a
002d
0037
0036
002c
000d
000a
002d
0038
0039
002c
000d
000a
002d
0037
0033
002c
000d
000a
0034
0030
002c
000d
000a
002d
0034
0034
002c
000d
000a
002d
0031
0031
0036
002c
000d
000a
0034
0038
002c
000d
000a
0035
0039
002c
000d
000a
0037
0035
002c
000d
000a
002d
0032
0039
002c
000d
000a
002d
0038
0030
002c
000d
000a
002d
0035
0035
002c
000d
000a
0032
0037
002c
000d
000a
002d
0039
0031
002c
000d
000a
002d
0038
0033
002c
000d
000a
002d
0031
0038
002c
000d
000a
0034
0037
002c
000d
000a
002d
0031
0032
0031
002c
000d
000a
0031
0032
002c
000d
000a
002d
0033
0038
002c
000d
000a
0034
0037
002c
000d
000a
002d
0033
0033
002c
000d
000a
0033
0035
002c
000d
000a
0031
0032
002c
000d
000a
0036
002c
000d
000a
002d
0038
0030
002c
000d
000a
0035
0030
002c
000d
000a
0033
0034
002c
000d
000a
002d
0031
0036
002c
000d
000a
0033
0033
002c
000d
000a
002d
0033
0039
002c
000d
000a
002d
0039
0035
002c
000d
000a
002d
0038
0033
002c
000d
000a
002d
0032
0030
002c
000d
000a
002d
0033
0033
002c
000d
000a
002d
0031
0037
002c
000d
000a
002d
0033
0032
002c
000d
000a
002d
0039
002c
000d
000a
002d
0035
002c
000d
000a
0038
002c
000d
000a
0038
002c
000d
000a
0034
0030
002c
000d
000a
0037
002c
000d
000a
002d
0039
002c
000d
000a
002d
0031
0035
002c
000d
000a
002d
0032
002c
000d
000a
002d
0031
0033
002c
000d
000a
002d
0039
0034
002c
000d
000a
002d
0038
0035
002c
000d
000a
002d
0034
002c
000d
000a
0031
0036
002c
000d
000a
002d
0033
002c
000d
000a
002d
0034
002c
000d
000a
002d
0037
0030
002c
000d
000a
0031
0038
002c
000d
000a
0032
0031
002c
000d
000a
0031
0031
002c
000d
000a
0032
0031
002c
000d
000a
0036
0038
002c
000d
000a
002d
0035
002c
000d
000a
002d
0037
0036
002c
000d
000a
002d
0031
0032
0037
002c
000d
000a
0033
0032
002c
000d
000a
0036
002c
000d
000a
002d
0036
0037
002c
000d
000a
0038
002c
000d
000a
0032
0036
002c
000d
000a
0033
002c
000d
000a
0032
0036
002c
000d
000a
0035
002c
000d
000a
0034
002c
000d
000a
002d
0033
002c
000d
000a
002d
0031
0032
002c
000d
000a
0032
0039
002c
000d
000a
0032
0030
002c
000d
000a
002d
0031
0034
002c
000d
000a
002d
0036
002c
000d
000a
0031
0036
002c
000d
000a
002d
0031
0030
002c
000d
000a
002d
0033
0036
002c
000d
000a
002d
0035
0037
002c
000d
000a
002d
0031
002c
000d
000a
0031
0030
002c
000d
000a
002d
0033
0037
002c
000d
000a
0030
002c
000d
000a
0031
0030
002c
000d
000a
0030
002c
000d
000a
0032
0033
002c
000d
000a
0031
002c
000d
000a
0037
002c
000d
000a
002d
0033
0034
002c
000d
000a
002d
0034
002c
000d
000a
002d
0032
0033
002c
000d
000a
002d
0031
0032
0030
002c
000d
000a
0031
002c
000d
000a
002d
0031
002c
000d
000a
002d
0032
0036
002c
000d
000a
0031
0038
002c
000d
000a
0031
0033
002c
000d
000a
002d
0037
002c
000d
000a
002d
0032
0034
002c
000d
000a
002d
0031
0032
002c
000d
000a
0032
0038
002c
000d
000a
0030
002c
000d
000a
0031
0035
002c
000d
000a
0031
0038
002c
000d
000a
0031
002c
000d
000a
0032
0034
002c
000d
000a
0034
002c
000d
000a
0032
0034
002c
000d
000a
0031
0036
002c
000d
000a
002d
0033
0038
002c
000d
000a
002d
0032
0030
002c
000d
000a
002d
0035
002c
000d
000a
002d
0032
0033
002c
000d
000a
002d
0035
0032
002c
000d
000a
002d
0031
0031
002c
000d
000a
0035
0033
002c
000d
000a
0031
0031
002c
000d
000a
0038
002c
000d
000a
002d
0031
0034
002c
000d
000a
002d
0031
0031
002c
000d
000a
002d
0038
0030
002c
000d
000a
0034
002c
000d
000a
0038
002c
000d
000a
002d
0039
0038
002c
000d
000a
002d
0037
002c
000d
000a
002d
0031
0033
002c
000d
000a
0033
0035
002c
000d
000a
0031
0038
002c
000d
000a
0031
0039
002c
000d
000a
0034
002c
000d
000a
002d
0038
0039
002c
000d
000a
0032
0030
002c
000d
000a
002d
0036
002c
000d
000a
002d
0039
002c
000d
000a
0031
0034
002c
000d
000a
0031
0034
002c
000d
000a
0037
002c
000d
000a
0035
002c
000d
000a
0031
002c
000d
000a
002d
0031
002c
000d
000a
002d
0033
002c
000d
000a
002d
0036
0030
002c
000d
000a
002d
0035
0035
002c
000d
000a
0037
002c
000d
000a
0031
0035
002c
000d
000a
0031
0031
002c
000d
000a
0031
0031
002c
000d
000a
002d
0031
002c
000d
000a
0035
002c
000d
000a
0031
0038
002c
000d
000a
0032
002c
000d
000a
0031
0030
002c
000d
000a
0039
002c
000d
000a
002d
0032
0034
002c
000d
000a
0031
0030
002c
000d
000a
002d
0037
0030
002c
000d
000a
0038
002c
000d
000a
002d
0032
0038
002c
000d
000a
0031
0030
002c