002d
ff94
009b
0041
ff50
ffa9
ff5e
ff9a
fefe
ff99
0022
000a
ffdd
ffa2
ffd9
ff7f
ff3c
0018
ffc1
003a
ff73
0094
ffd6
ff89
0099
ffcb
ffa8
ff76
ffce
ffe1
ff12
ff94
0005
ffed
0030
ffc6
0063
ff7b
ff36
ffa5
ffe6
ff6c
004b
0127
ffed
0027
ffc4
fff7
ff63
007c
ffe6
0024
012c
ffba
000b
0044
ffeb
003e
ffee
ffb7
00cb
fffe
ffdd
0034