002c
000d
000a
0031
0039
002c
000d
000a
0033
0034
002c
000d
000a
0032
0039
002c
000d
000a
002d
0037
002c
000d
000a
0039
002c
000d
000a
0031
0031
002c
000d
000a
0033
0033
002c
000d
000a
0031
0039
002c
000d
000a
0036
0032
002c
000d
000a
0035
002c
000d
000a
002d
0031
0030
002c
000d
000a
0034
0032
002c
000d
000a
0031
002c
000d
000a
0037
002c
000d
000a
002d
0031
0031
002c
000d
000a
002d
0031
0038
002c
000d
000a
0035
002c
000d
000a
0031
0033
002c
000d
000a
0036
0031
002c
000d
000a
0033
002c
000d
000a
0035
002c
000d
000a
0031
0037
002c
000d
000a
0039
002c
000d
000a
0031
0032
002c
000d
000a
002d
0031
0030
002c
000d
000a
002d
0034
002c
000d
000a
002d
0031
002c
000d
000a
002d
0031
0036
002c
000d
000a
002d
0031
002c
000d
000a
0035
0035
002c
000d
000a
0037
0030
002c
000d
000a
0034
002c
000d
000a
0030
002c
000d
000a
0032
0030
002c
000d
000a
0036
002c
000d
000a
002d
0032
0036
002c
000d
000a
0037
002c
000d
000a
002d
0037
002c
000d
000a
0031
0034
002c
000d
000a
0030
002c
000d
000a
0034
0031
002c
000d
000a
002d
0031
0038
002c
000d
000a
002d
0031
0035
002c
000d
000a
0037
0035
002c
000d
000a
0036
002c
000d
000a
002d
0032
0031
002c
000d
000a
002d
0032
0032
002c
000d
000a
0036
002c
000d
000a
0030
002c
000d
000a
0032
002c
000d
000a
0032
0034
002c
000d
000a
002d
0032
002c
000d
000a
002d
0031
0030
002c
000d
000a
002d
0034
0039
002c
000d
000a
002d
0033
002c
000d
000a
002d
0039
002c
000d
000a
002d
0031
0039
002c
000d
000a
002d
0032
002c
000d
000a
002d
0033
0037
002c
000d
000a
002d
0034
0033
002c
000d
000a
002d
0033
0033
002c
000d
000a
0039
0034
002c
000d
000a
0031
0032
0037
002c
000d
000a
002d
0034
0038
002c
000d
000a
002d
0032
0031
002c
000d
000a
0036
002c
000d
000a
0031
0039
002c
000d
000a
002d
0035
0038
002c
000d
000a
002d
0033
0030
002c
000d
000a
002d
0032
002c
000d
000a
0035
002c
000d
000a
002d
0031
0030
002c
000d
000a
0035
0039
002c
000d
000a
002d
0034
0036
002c
000d
000a
002d
0036
0032
002c
000d
000a
0032
0036
002c
000d
000a
002d
0031
0039
002c
000d
000a
002d
0035
0037
002c
000d
000a
002d
0035
0030
002c
000d
000a
0031
0034
002c
000d
000a
002d
0031
0037
002c
000d
000a
0036
002c
000d
000a
0037
0035
002c
000d
000a
0031
002c
000d
000a
0032
002c
000d
000a
0032
002c
000d
000a
0032
0034
002c
000d
000a
0031
0035
002c
000d
000a
0031
0034
002c
000d
000a
0032
0032
002c
000d
000a
0031
0031
002c
000d
000a
0031
0037
002c
000d
000a
0035
002c
000d
000a
0031
0039
002c
000d
000a
0033
0031
002c
000d
000a
0033
002c
000d
000a
0033
0032
002c
000d
000a
0034
0034
002c
000d
000a
0033
0035
002c
000d
000a
002d
0031
0033
002c
000d
000a
002d
0032
002c
000d
000a
002d
0031
0032
002c
000d
000a
0033
0032
002c
000d
000a
0038
002c
000d
000a
0035
0037
002c
000d
000a
002d
0031
0039
002c
000d
000a
0033
002c
000d
000a
0032
0037
002c
000d
000a
0031
0033
002c
000d
000a
002d
0032
002c
000d
000a
002d
0031
0034
002c
000d
000a
0032
0031
002c
000d
000a
002d
0035
002c
000d
000a
0032
0035
002c
000d
000a
0035
0030
002c
000d
000a
0031
0035
002c
000d
000a
002d
0031
0034
002c
000d
000a
002d
0032
0036
002c
000d
000a
0031
0033
002c
000d
000a
0036
002c
000d
000a
0033
002c
000d
000a
0030
002c
000d
000a
002d
0037
002c
000d
000a
002d
0035
002c
000d
000a
002d
0031
0035
002c
000d
000a
0035
0035
002c
000d
000a
0036
0039
002c
000d
000a
002d
0032
002c
000d
000a
0038
002c
000d
000a
0032
0037
002c
000d
000a
0031
0037
002c
000d
000a
002d
0032
0039
002c
000d
000a
002d
0031
002c
000d
000a
002d
0032
002c
000d
000a
0039
002c
000d
000a
0031
0030
002c
000d
000a
0034
0034
002c
000d
000a
002d
0035
0032
002c
000d
000a
002d
0031
0034
002c
000d
000a
0036
0038
002c
000d
000a
0031
0034
002c
000d
000a
002d
0034
0030
002c
000d
000a
002d
0032
0031
002c
000d
000a
0037
002c
000d
000a
0036
002c
000d
000a
0031
0037
002c
000d
000a
0034
0034
002c
000d
000a
0031
0032
002c
000d
000a
002d
0033
0032
002c
000d
000a
002d
0034
0035
002c
000d
000a
002d
0032
0030
002c
000d
000a
002d
0039
002c
000d
000a
002d
0032
0030
002c
000d
000a
002d
0036
002c
000d
000a
002d
0035
0037
002c
000d
000a
002d
0033
0037
002c
000d
000a
002d
0034
0039
002c
000d
000a
0039
0036
002c
000d
000a
0031
0032
0037
002c
000d
000a
002d
0034
0033
002c
000d
000a
002d
0031
0039
002c
000d
000a
0031
0032
002c
000d
000a
0032
0037
002c
000d
000a
002d
0036
0035
002c
000d
000a
002d
0032
0037
002c
000d
000a
002d
0033
002c
000d
000a
0031
0030
002c
000d
000a
002d
0031
0032
002c
000d
000a
0035
0031
002c
000d
000a
002d
0033
0038
002c
000d
000a
002d
0036
0038
002c
000d
000a
0032
0038
002c
000d
000a
0032
002c
000d
000a
002d
0035
0031
002c
000d
000a
002d
0035
0031
002c
000d
000a
0031
002c
000d
000a
002d
0031
0037
002c
000d
000a
0031
0033
002c
000d
000a
0036
0032
002c
000d
000a
002d
0031
002c
000d
000a
0034
002c
000d
000a
0031
0032
002c
000d
000a
002d
0039
002c
000d
000a
0031
0032
002c
000d
000a
0039
002c
000d
000a
0031
0032
002c
000d
000a
0031
0034
002c
000d
000a
0039
002c
000d
000a
0039
002c
000d
000a
0031
0037
002c
000d
000a
0034
0036
002c
000d
000a
002d
0033
002c
000d
000a
0032
0032
002c
000d
000a
0036
0037
002c
000d
000a
0037
002c
000d
000a
0031
0036
002c
000d
000a
002d
0031
0037
002c
000d
000a
002d
0039
002c
000d
000a
0032
002c
000d
000a
002d
0039
002c
000d
000a
0038
0037
002c
000d
000a
0031
0035
002c
000d
000a
0032
0038
002c
000d
000a
002d
0033
0037
002c
000d
000a
002d
0031
0036
002c
000d
000a
0039
002c
000d
000a
0031
002c
000d
000a
002d
0035
002c
000d
000a
002d
0031
0030
002c
000d
000a
0031
0038
002c
000d
000a
0039
0030
002c
000d
000a
002d
0031
0032
002c
000d
000a
002d
0031
0031
002c
000d
000a
0031
0030
002c
000d
000a
002d
0031
0036
002c
000d
000a
002d
0033
0033
002c
000d
000a
0039
002c
000d
000a
0037
002c
000d
000a
0031
0036
002c
000d
000a
002d
0033
002c
000d
000a
002d
0031
0030
002c
000d
000a
0032
0030
002c
000d
000a
0033
0034
002c
000d
000a
0031
0037
002c
000d
000a
0031
0037
002c
000d
000a
0031
0036
002c
000d
000a
0034
002c
000d
000a
002d
0032
0037
002c
000d
000a
0033
002c
000d
000a
002d
0032
0034
002c
000d
000a
002d
0035
002c
000d
000a
0032
002c
000d
000a
0037
0031
002c
000d
000a
002d
0031
0031
002c
000d
000a
002d
0033
0037
002c
000d
000a
002d
0035
0035
002c
000d
000a
002d
0031
002c
000d
000a
0031
0031
002c
000d
000a
002d
0034
0038
002c
000d
000a
002d
0038
002c
000d
000a
0033
002c
000d
000a
0033
002c
000d
000a
0036
0036
002c
000d
000a
002d
0031
0036
002c
000d
000a
002d
0031
0034
002c
000d
000a
0035
002c
000d
000a
002d
0032
0038
002c
000d
000a
002d
0033
0034
002c
000d
000a
0031
0032
002c
000d
000a
002d
0031
002c
000d
000a
0035
002c
000d
000a
002d
0032
002c
000d
000a
002d
0032
0036
002c
000d
000a
0031
0039
002c
000d
000a
0033
0039
002c
000d
000a
0030
002c
000d
000a
0036
002c
000d
000a
0031
0033
002c
000d
000a
0036
002c
000d
000a
002d
0039
0038
002c
000d
000a
002d
0031
0038
002c
000d
000a
002d
0031
0034
002c
000d
000a
0037
002c
000d
000a
002d
0031
0035
002c
000d
000a
0036
0030
002c
000d
000a
002d
0034
002c
000d
000a
002d
0039
0033
002c
000d
000a
0031
0032
0037
002c
000d
000a
0030
002c
000d
000a
002d
0032
0035
002c
000d
000a
002d
0031
0030
0035
002c
000d
000a
002d
0033
002c
000d
000a
002d
0031
0032
002c
000d
000a
002d
0032
002c
000d
000a
0034
0037
002c
000d
000a
002d
0032
0036
002c
000d
000a
002d
0034
002c
000d
000a
0034
002c
000d
000a
002d
0033
002c
000d
000a
002d
0031
002c
000d
000a
002d
0037
0030
002c
000d
000a
002d
0031
0034
002c
000d
000a
0037
002c
000d
000a
002d
0033
002c
000d
000a
002d
0031
002c
000d
000a
0035
0032
002c
000d
000a
0036
0034
002c
000d
000a
002d
0031
0036
002c
000d
000a
002d
0033
0035
002c
000d
000a
002d
0031
002c
000d
000a
002d
0036
0030
002c
000d
000a
0039
002c
000d
000a
002d
0031
0036
002c
000d
000a
002d
0036
0033
002c
000d
000a
002d
0031
0032
0037
002c
000d
000a
002d
0036
0033
002c
000d
000a
0031
0037
002c
000d
000a
002d
0032
002c
000d
000a
0034
002c
000d
000a
0031
0031
002c
000d
000a
002d
0032
0036
002c
000d
000a
0032
002c
000d
000a
0035
002c
000d
000a
0031
0033
002c
000d
000a
002d
0031
0032
002c
000d
000a
002d
0032
0033
002c
000d
000a
0032
0036
002c
000d
000a
0032
002c
000d
000a
002d
0033
002c
000d
000a
0034
002c
000d
000a
0033
002c
000d
000a
002d
0033
002c
000d
000a
002d
0036
002c
000d
000a
002d
0039
002c
000d
000a
0030
002c
000d
000a
002d
0031
002c
000d
000a
0030
002c
000d
000a
0031
0033
002c
000d
000a
0032
0032
002c
000d
000a
0031
0030
002c
000d
000a
002d
0032
0032
002c
000d
000a
002d
0032
0038
002c
000d
000a
002d
0032
0037
002c
000d
000a
0031
0035
002c
000d
000a
002d
0031
002c
000d
000a
002d
0034
002c
000d
000a
002d
0032
0031
002c
000d
000a
0033
002c
000d
000a
002d
0035
0038
002c
000d
000a
0035
002c
000d
000a
0033
002c
000d
000a
0031
0038
002c
000d
000a
002d
0031
0031
002c
000d
000a
0031
002c
000d
000a
0035
002c
000d
000a
0031
0032
002c
000d
000a
0031
002c
000d
000a
002d
0031
0033
002c
000d
000a
002d
0035
0030
002c
000d
000a
002d
0032
002c
000d
000a
0037
002c
000d
000a
0033
002c
000d
000a
0034
002c
000d
000a
0032
0035
002c
000d
000a
0039
002c
000d
000a
0030
002c
000d
000a
0038
002c
000d
000a
0037
002c
000d
000a
0037
002c
000d
000a
0031
0033
002c
000d
000a
0032
0034
002c
000d
000a
0033
002c
000d
000a
0035
002c
000d
000a
002d
0034
002c
000d
000a
002d
0033
0035
002c
000d
000a
0032
002c
000d
000a
002d
0038
002c
000d
000a
0032
0039
002c
000d
000a
002d
0033
0037
002c
000d
000a
002d
0032
002c
000d
000a
002d
0037
0032
002c
000d
000a
0037
002c
000d
000a
0039
002c
000d
000a
0031
0035
002c
000d
000a
002d
0031
0034
002c
000d
000a
0031
0031
002c
000d
000a
0032
002c
000d
000a
002d
0031
002c
000d
000a
002d
0031
0033
002c
000d
000a
0031
0038
002c
000d
000a
002d
0038
0031
002c
000d
000a
0033
002c
000d
000a
0031
0037
002c
000d
000a
002d
0032
002c
000d
000a
0034
002c
000d
000a
0031
0036
002c
000d
000a
0031
0038
002c
000d
000a
0032
0034
002c
000d
000a
002d
0031
002c
000d
000a
0030
002c
000d
000a
0031
0030
002c
000d
000a
0032
0033
002c
000d
000a
0033
0035
002c
000d
000a
0031
002c
000d
000a
0032
0033
002c
000d
000a
0033
0031
002c
000d
000a
0032
0033
002c
000d
000a
002d
0031
0034
002c
000d
000a
0031
0035
002c
000d
000a
002d
0031
0031
002c
000d
000a
0033
0032
002c
000d
000a
0031
0033
002c
000d
000a
0036
0031
002c
000d
000a
002d
0032
0032
002c
000d
000a
002d
0031
0031
002c
000d
000a
0034
0030
002c
000d
000a
0037
002c
000d
000a
0036
002c
000d
000a
002d
0031
0034
002c
000d
000a
0031
0039
002c
000d
000a
0030
002c
000d
000a
0031
0030
002c
000d
000a
0034
0037
002c
000d
000a
0031
0036
002c
000d
000a
002d
0039
002c
000d
000a
002d
0032
0031
002c
000d
000a
0030
002c
000d
000a
002d
0039
002c
000d
000a
0032
002c
000d
000a
0031
0034
002c
000d
000a
002d
0031
002c
000d
000a
0032
002c
000d
000a
002d
0031
0039
002c
000d
000a
0034
0034
002c
000d
000a
0034
0038
002c
000d
000a
0035
002c
000d
000a
0031
0032
002c
000d
000a
0031
0038
002c
000d
000a
0031
0035
002c
000d
000a
002d
0031
0035
002c
000d
000a
002d
0036
002c
000d
000a
0035
002c
000d
000a
0033
0030
002c
000d
000a
002d
0034
002c
000d
000a
0034
0039
002c
000d
000a
002d
0035
0032
002c
000d
000a
002d
0033
0031
002c
000d
000a
0034
0036
002c
000d
000a
0031
002c
000d
000a
002d
0033
0037
002c
000d
000a
002d
0032
0032
002c
000d
000a
002d
0034
002c
000d
000a
0031
002c
000d
000a
0032
0030
002c
000d
000a
0032
0033
002c
000d
000a
0031
0030
002c
000d
000a
002d
0031
0039
002c
000d
000a
002d
0034
0038
002c
000d
000a
002d
0031
0030
002c
000d
000a
002d
0032
002c
000d
000a
002d
0031
0030
002c
000d
000a
0032
002c
000d
000a
002d
0034
0038
002c
000d
000a
002d
0033
0030
002c
000d
000a
002d
0035
0033
002c
000d
000a
0039
0036
002c
000d
000a
0031
0032
0037
002c
000d
000a
002d
0033
0037
002c
000d
000a
002d
0031
0030
002c
000d
000a
0032
0037
002c
000d
000a
0032
0035
002c
000d
000a
002d
0035
0038
002c
000d
000a
002d
0033
0030
002c
000d
000a
0036
002c
000d
000a
0033
0033
002c
000d
000a
002d
0031
0030
002c
000d
000a
0033
0038
002c
000d
000a
002d
0033
0038
002c
000d
000a
002d
0034
0037
002c
000d
000a
0033
0034
002c
000d
000a
0037
002c
000d
000a
002d
0033
0037
002c
000d
000a
002d
0033
0039
002c
000d
000a
0031
0032
002c
000d
000a
002d
0031
0031
002c
000d
000a
0034
002c
000d
000a
0036
0033
002c
000d
000a
0031
0032
002c
000d
000a
002d
0034
002c
000d
000a
0031
0030
002c
000d
000a
0039
002c
000d
000a
0032
0039
002c
000d
000a
0030
002c
000d
000a
0030
002c
000d
000a
0039
002c
000d
000a
0031
002c
000d
000a
0039
002c
000d
000a
002d
0037
0035
002c
000d
000a
002d
0031
0032
0037
002c
000d
000a
0031
0037
002c
000d
000a
0031
0037
002c
000d
000a
0031
0031
002c
000d
000a
0032
0031
002c
000d
000a
0031
0034
002c
000d
000a
0031
0034
002c
000d
000a
0031
0033
002c
000d
000a
0031
0032
002c
000d
000a
0031
002c
000d
000a
002d
0031
0037
002c
000d
000a
0030
002c
000d
000a
0032
0030
002c
000d
000a
002d
0036
0031
002c
000d
000a
0031
0038
002c
000d
000a
002d
0034
002c
000d
000a
0036
002c
000d
000a
002d
0039
0033
002c
000d
000a
002d
0031
0031
002c
000d
000a
0031
002c
000d
000a
002d
0031
0033
002c
000d
000a
002d
0032
0038
002c
000d
000a
0034
002c
000d
000a
002d
0032
0030
002c
000d
000a
0031
002c
000d
000a
0032
0036
002c
000d
000a
002d
0031
0031
002c
000d
000a
002d
0039
002c
000d
000a
0032
002c
000d
000a
002d
0031
0032
002c
000d
000a
0030
002c
000d
000a
002d
0039
0033
002c
000d
000a
002d
0038
0030
002c
000d
000a
002d
0034
002c
000d
000a
0032
0036
002c
000d
000a
002d
0031
0039
002c
000d
000a
0034
002c
000d
000a
0031
0035
002c
000d
000a
002d
0032
002c
000d
000a
0032
0034
002c
000d
000a
0031
0031
002c
000d
000a
002d
0039
002c
000d
000a
002d
0033
0037
002c
000d
000a
002d
0033
0033
002c
000d
000a
0032
0036
002c
000d
000a
002d
0033
0039
002c
000d
000a
002d
0034
002c
000d
000a
002d
0033
0032
002c
000d
000a
0032
0030
002c
000d
000a
002d
0038
0034
002c
000d
000a
002d
0031
0031
002c
000d
000a
002d
0031
002c
000d
000a
002d
0034
0030
002c
000d
000a
002d
0031
0036
002c
000d
000a
002d
0038
002c
000d
000a
002d
0035
002c
000d
000a
002d
0031
0033
002c
000d
000a
0032
0034
002c
000d
000a
002d
0031
0030
002c
000d
000a
0032
0034
002c
000d
000a
0031
0037
002c
000d
000a
002d
0032
002c
000d
000a