ffeb
003e
0030
0011
0050
0041
0028
0041
002c
0033
ffe1
007f
0045
0009
ffdb
0026
0008
ffdb
0039
ffbf
0011
0011
0048
ffca
0028
ffd2
ffd7
fffd
ffcd
ffe0
0024
0048
ffd2
ffbe
0004
ffd6
0012
ffe2
001c
0045
ffeb
003e
0012
003d
fffb
ffde
ffe9
ffd2
ffe7
0013
0001
ffee
0047
0012
ffe4
0012
ffce
000c
ffdd
0041
001f
ffe0
ffd7
ffdc