; Weights for 1_dense_1_MatMul Shape:(1, 64)
memory_initialization_radix=10;
memory_initialization_vector=
-21,
62,
48,
17,
80,
65,
40,
65,
44,
51,
-31,
127,
69,
9,
-37,
38,
8,
-37,
57,
-65,
17,
17,
72,
-54,
40,
-46,
-41,
-3,
-51,
-32,
36,
72,
-46,
-66,
4,
-42,
18,
-30,
28,
69,
-21,
62,
18,
61,
-5,
-34,
-23,
-46,
-25,
19,
1,
-18,
71,
18,
-28,
18,
-50,
12,
-35,
65,
31,
-32,
-41,
-36;
