0096
007b
007b
ffb1
ffcc
ffdc
0058
ffe7
0024
ff8f
0032
0030
0047
0049
ffe5
ff0c
00a5
0021
ffbf
0055
ff9c
ffa8
007b
ffd8
ff7f
ffe5
0026
ffdc
ffcc
fffc
ff4d
ffaa
0060
ffeb
0068
ffce
ffe9
ffbf
0034
ffb3
0015
005a
00a3
001d
0081
005c
ffdc
ffd6
005a
00a1
007f
ffa6
0036
0013
0068
fffe
0008
ffed
ffa4
ffd4
005c
ffd2
0047
0049
0079
0017
0015
0011
ff68
ffb9
002e
0013
ffd2
ff57
ffb3
0011
ffef
ffb3
0073
00a3
002a
ffbf
0032
0047
ffe4
ffe6
005b
ffa7
001c
fffa
ffc2
ffe2
002a
ffe6
ff81
0051
0018
ff75
ffe0
ffdc
0010
006d
ffe0
0047
ff79
ffde
00a3
ffea
0057
0014
ff04
0091
fffc
ffb3
fff8
fff2
ffbf
0040
ffd0
0024
0024
fff2
ffea
0073
ff9d
ffab
ffc0
005b
fff8
005b
0099
000c
ff57
0043
0018
ffec
ffe8
ffec
fff8
0041
003a
ffab
0028
0002
ffea
ffa3
ffad
003c
0026
ffd6
002e
0034
ffd0
ffec
003e
ffdc
ffd8
ffd8
0016
ff93
002f
001c
ff9e
ffc8
ffdb
ffc3
fffe
0005
003d
0005
0085
0005
0052
ffc1
ffd6
ff82
ffc3
ff95
0085
009c
ffdb
ffd8
0054
0075
ffba
0038
0044
00a3
ffba
004d
006b
0010
ffe2
003d
0128
ffae
0021
ff90
002c
ff97
007e
ffdd
0046
fff9
0054
fef4
008e
0010
009f
ffe2
0025
ff68
ff80
ff87
00f3
ffe2
ffed
ffa7
fff2
001c
ffbf
ffaa
0046
003d
ffa3
ff76
0025
ffa3
ffba
008a
ffe6
ffb3
ffdb
000e
ff61
0036
ffc3
0080
0048
ffcf
003b
feed
00a6
ff44
ffa9
0051
0084
ff03
0030
ff71
ffec
ff93
001f
0092
002d
007e
ff93
002a
0165
ffb1
0041
000e
0011
000b
00ab
ffaf
0068
ffec
ffbf
001f
0027
ffea
ffa1
ff30
0054
ff82
003e
ff6e
0046
003e
004f
ff8d
001f
002a
ffcb
ffba
ffbd
ff22
fffd
ffe7
fff2
ff44
0035
003e
0062
ffe4
0054
ffa9
ff90
ff68
0008
0022
ffbd
0092
ffbd
ffdc
ff8d
000b
000b
008f
005d
0070
00d8
ffc5
001f
ffb7
000b
0041
ff41
fff2
0012
fff6
ff94
ffb8
00e3
0058
0075
0062
0023
ffd1
ffbc
ffa8
ff75
ff81
00ac
ffd9
ffcf
0060
005c
ff98
ffcf
ffec
0075
ff08
ffba
0023
0033
003d
000c
ffea
ffe7
ffc1
000a
ff23
ff93
ff4e
003d
0044
ff27
003b
ff85
001f
ff91
ff6d
ff91
ff6d
0062
ff83
001b
0073
00aa
ff3e
005c
ffb4
ff4c
ff83
0048
0014
ffc1
00e5
005e
00a0
ffd3
ffec
ffc7
ff2b
ffbe
ffec
002d
00c7
ffcf
001f
ffc9
fffe
ff7f
ff96
ff79
ff96
00a6
ff66
0073
0065
ffe2
0079
0065
0067
ff7b
0035
0025
0047
fffb
ffe9
ffb2
ffc9
fedd
00b7
ffd0
0029
ff6b
ffa2
0019
ffa2
0065
003e
0015
ff62
ffbe
0005
002e
0017
005c
00e3
ffa2
0032
ffb0
fff0
fff0
0005
0070
00a7
ff74
fffb
fffb
0050
003c
ff7b
0070
fffe
0007
ff94
ffc9
0077
00c1
ff8b
0079
0032
ffe4
ff54
0073
0027
ffab
0083
ffc4
0015
00c7
ffdb
ffe9
ffe7
0000
00f5
0073
ff92
ff9d
fff5
0085
ffd2
ffcb
005c
ff46
0007
00a6
009e
0085
00c0
0057
ffee
fff0
ffdf
00a2
0061
00ac
ffde
ffca
0005
ff76
0061
ff5f
0030
ffc8
ffdf
ffe4
ffee
00d0
0039
ff9f
ffbb
ffbb
ffb5
ffe2
0040
0005
00b8
0079
ffe1
ffec
0021
001e
ff9c
0014
008b
0045
ffd4
ffe7
0017
000f
0033
ffe9
004a
ff80
ffa1
ffd5
003e
0088
ffc2
fffb
0064
ff88
002e
0039
0003
0014
0031
ffa9
000d
ffe2
0014
ff6e
0069
000b
ffb9
003d
0080
0007
0067
005e
ffd2
fff9
007b
004d
0042
ff98
004f
ffc9
00ba
ffdc
006d
0082
ff8d
ffe2
0040
000f
fffe
005a
0028
fffe
ff4f
009e
0071
0013
009c
ff88
0029
ffb1
005c
0042
ffd7
0008
ffbc
009c
0078
ffa0
001e
ffa4
ff6f
fffa
0055
002b
007a
0002
ffd8
004d
000b
0031
ffd1
ff7c
0028
ffc2
001a
ffa0
0048
ffa6
ffeb
0084
ff86
0017
000b
000b
0006
0048
ffcf
ff58
ff6b
fffa
ffe0
ff9c
007c
00ef
0017
ff5a
0029
ffcb
00cd
0048
000f
ff95
002f
004b
0024
ff88
0033
ff8e
ff09
ffa6
ffd7
ffec
007a
0078
008f
003d
0031
0023
000a
0025
001d
ff5f
ff88
ffae
fffa
ffe3
ffd9
0049
ffbd
ffe3
ffae
ffdb
fffa
ffc3
0058
004d
006a
004f
fff8
ff92
ffa6
ffa2
ffa2
0103
0072
ff67
fff6
002d
0080
ff8a
ffc5
ffb5
ffbd
ffe6
ffb1
fff8
0031
0041
000a
ffe8
005c
ffa0
ffe1
0002
002b
fff8
003f
0084
0006
00a1
fff4
ffbd
009d
0033
ffd7
ffe3
008d
ff8a
ff69
0023
0076
ffae
0031
ff6f
0045
ffe1
ffe6
00a7
ff56
ffaf
ffcd
ff45
ff7c
00c8
ffa7
0057
ff3b
009d
0003
0044
fffb
0019
0010
000a
008d
007f
ff9e
ffc1
ffbf
002c
ffb1
0029
0061
006d
ff8c
00a3
0002
00c9
002e
ffc7
001e
0069
ff80
0039
000b
0057
0069
0006
0054
0056
ff91
ffac
ff8c
005e
0049
fff5
0011
0069
ffcf
fffb
ff94
ffbc
002c
ffbc
ffd0
ffbf
fff8
ffe7
006a
ffb2
ffa9
009a
006f
0059
ff42
0000
ff8b
fff5
ffa6
0044
002b
0059
ffac
00ae
ff81
000d
fff8
ffc2
ffca
00ce
0027
fff8
fffc
ff4d
00ca
fffc
ffa3
ff61
0023
00a7
011f
0008
ffd5
0069
0010
003e
ff97
ff84
0088
0055
ff8c
000c
0013
013e
0004
0042
005d
0000
ff9f
ff6c
ffed
00ab
0013
ff55
008c
ffe5
0059
00d6
0065
ff97
ffae
0080
0146
ffae
ffe5
ff65
0080
ff59
0004
00ed
ffe9
0090
003e
004a
ff3a
ff9f
ffa7
ff1f
ffa3
ff1f
0042
ff6c
ffed
001f
006d
0097
0010
003e
0097
00f5
004a
002f
ff80
fff4
fffc
fe13
0052
0099
ff43
ff11
ffbb
0090
ffc7
ffa8
0124
ffcb
0026
fff4
ffaa
ff59
ffac
0092
005b
ffa8
0021
ffa5
ff90
0021
0130
ff67
ff11
ff81
0094
0039
00e8
003c
002b
0005
0043
0005
ff29
ff86
001f
00b1
0035
ffe1
000e
ffcb
001d
ff92
ff02
ff7c
fff6
0016
fff6
001d
00f4
ffda
0029
ffc9
007c
ff9c
ffce
0035
fff9
ff32
00ce
0081
ffac
0073
ff2b
ff8d
005b
ff5d
ffef
003e
ff51
ff70
001a
ffbb
0000
00cb
003c
ffbb
00e8
00dc
0070
008a
fff5
0120
ffac
ff6c
006b
001b
ffec
00a6
0076
ffe0
ffaa
ffe5
00c8
ff91
ff98
ffa3
ffbc
0032
ffe0
001e
fff5
005d
003d
ffba
002b
ffd9
ffe9
ff31
0040
ffaa
ff04
ff71
000e
0027
005b
0030
0029
0098
00c3
0046
008a
0078
ff98
ff91
0017
ffe9
ff71
ffb3
ffba
ff78
0088
002d
ffc0
ffdc
ffc5
ff63
00ad
0009
ffd5
ff48
00a1
0000
002b
ffbc
ff41
ffe2
ff76
006d
0105
0064
005b
ffc7
0052
ff5f
000b
fff2
ffb5
ff66
00aa
0082
ffea
ffed
008f
ffef
005c
006f
0023
fff3
0044
006e
ffa6
000d
0002
004f
ff7b
0043
003b
ffcc
0098
006c
ffaf
ffbc
ffa6
0038
0019
fffe
ffc7
000a
0018
ff96
0064
0006
0011
0010
ffc5
0013
fffb
ffed
ffa9
0005
ffef
ffdb
ffdd
005a
ff8b
ff8c
0057
ffb2
ffb9
ffbd
fffb
ffb1
0046
ffb2
00ca
ff40
fffa
002c
0071
0039
0030
ffd5
003e
0031
0046
005e
008f
0033
ffdf
0026
0079
000e
ffa2
fffe
ffef
00aa
ff84
0023
001d
ffe4
ff93
ffac
0000
0022
ff65
0028
ffed
ffac
ffa9
ffb9
004e
003e
0057
fe76
0098
006d
007c
0000
0044
ff2d
000c
00b4
ff49
0054
ff17
ffac
004e
ffc2
0035
001c
00d3
0000
0010
ffc8
ffa0
ffa0
ffed
00f2
0000
0013
0038
000c
00e6
ffc8
007c
0057
ff7e
0028
ffea
007c
008f
fff7
ff43
0019
0085
ffb2
ff9d
ffaf
ffe4
001f
0016
fec4
0000
ffa9
0044
ffb9
ffce
0025
0057
006d
0060
feec
0089
005d
005d
011d
feca
0041
0044
0121
0035
ff99
0089
00b4
00a5
fefb
003e
ffac
ff65
ff36
010e
002b
ff6e
ffe4
fffa
fffa
0054
ffc2
ff4c
ffa3
00d6
0016
ff71
ff90
ffbc
0054
0032
0032
0000
0054
003e
ffe1
ff8d
0013
ffcb
0121
fff7
ffa6
002b
ff90
ff23
ff68
ffbc
ffa9
feb7
0105
ff6b
009b
006d
fed6
ff7a
0000
0086
fe76
00ab
001f
001f
0044
0168
000c
0006
007c
ffde
ffd1
fff7
0086
0057
ffa6
ffb5
ff30
ffcb
ffa3
002f
ffd5
0051
ffc2
ffce
ffc2
fedf
