ff54
0032
ff25
ffbb
003d
000d
005e
0035
ffda
ff49
003d
0035
ff75
ff32
0032
0091
006b
ffa6
ff7a
001f
0063
0078
00a4
0000
0087
0017
0035
ff73
005c
0071
0050
ffc7
ff30
ff60
0041
0026
ffbb
ff9b
000a
000a
ff79
ff86
0063
ffc3
0017
00b9
001d
fffa
ff2a
006b
ff36
ffa4
ff21
002a
0002
002c
fff1
fffa
0084
ff5c
ff0e
0039
ff8f
ffe7
0060
0024
0024
ff40
ffc5
0030
004d
ffbf
ffd8
005a
ff8e
0028
ff3c
0066
0014
ff58
ffb9
ff55
ffa8
fff4
006e
ffc1
ff47
0011
fffe
0031
002e
ff62
ff51
ff59
0036
ff64
001d
ff50
ff72
ffab
ffbf
ffb1
0006
0066
0072
ff8b
0028
ffca
0019
ffe4
ff58
0033
0063
005d
004c
ff62
002d
0019
ffd3
0008
0033
0028
ff95
002b
0058
0033
ff83
ffc1
ffc4
ff35
ff59
ff7a
0068
0054
ff53
002a
0018
006b
005d
fffe
0016
0012
ff3e
ffc0
006d
ff8a
0074
0010
ff6d
ff7a
ffda
0004
0026
ffb2
ffee
fffb
ffc4
007f
ff36
006f
ff8f
0085
ff52
ff38
ffc8
008e
003a
ff9e
0047
00e7
ff64
00bf
0023
0004
0033
0005
002f
ffa2
0047
005e
fff0
0023
ffd4
ffe7
0018
003e
ff8a
001d
004c
ff4c
00bb
002c
fff1
000b
0072
0084
ff81
ff46
ffba
002d
0026
ff96
ffbf
ffc2
007c
0014
003e
0018
ffe3
0096
0058
ffe8
ff47
ff73
0015
fffd
ffc2
001a
ff5e
0062
0084
fff4
004f
0069
0041
0052
0058
005f
ffc8
001a
ffce
ff53
ff68
ff81
006f
ff94
001d
ffef
ff93
ffd3
ff5c
ff40
ff90
0055
ffc8
ff88
ffec
0034
000b
0018
ff8a
003d
ffd1
ffba
ffc9
ffc6
