memory_initialization_radix=10;
memory_initialization_vector=
0,
0,
0,
0,
0,
0,
0,
0,
0,
0,
0,
0,
0,
0,
0,
0,
0,
0,
0,
0,
0,
0,
0,
0,
0,
0,
0,
0,
0,
0,
0,
0,
0,
0,
0,
0,
0,
0,
0,
0,
0,
0,
0,
0,
0,
0,
0,
0,
0,
0,
0,
0,
0,
0,
0,
0,
0,
0,
0,
0,
0,
0,
0,
0,
0,
0,
0,
0,
0,
0,
0,
0,
0,
0,
0,
0,
0,
0,
0,
0,
0,
0,
0,
0,
0,
0,
0,
0,
0,
0,
0,
0,
0,
0,
0,
0,
0,
0,
0,
0,
0,
0,
0,
0,
0,
0,
0,
0,
0,
0,
0,
0,
0,
0,
0,
0,
0,
0,
0,
0,
0,
0,
0,
0,
0,
0,
0,
0,
0,
0,
0,
0,
0,
0,
0,
0,
0,
0,
0,
0,
0,
0,
0,
0,
0,
0,
0,
0,
0,
0,
0,
0,
0,
0,
0,
0,
0,
0,
0,
0,
0,
0,
0,
0,
0,
0,
0,
0,
0,
0,
0,
0,
0,
0,
0,
0,
0,
0,
0,
0,
0,
0,
0,
0,
0,
0,
0,
0,
0,
0,
0,
0,
0,
0,
0,
0,
0,
0,
0,
0,
0,
0,
0,
0,
0,
0,
0,
0,
0,
0,
0,
0,
0,
0,
0,
0,
-14,
-4,
38,
19,
-72,
1,
0,
-128,
25,
0,
0,
0,
0,
0,
0,
0,
-112,
-88,
71,
-79,
-70,
2,
0,
0,
-32,
87,
-9,
-80,
-70,
2,
0,
0,
-24,
-2,
-122,
-69,
-4,
127,
0,
0,
-112,
54,
-32,
-80,
-70,
2,
0,
0,
2,
0,
0,
0,
3,
0,
0,
0,
96,
-43,
-125,
-69,
-4,
127,
0,
0,
48,
-91,
50,
101,
-72,
2,
0,
0,
32,
-11,
-125,
-69,
-4,
127,
0,
0,
-64,
-26,
-66,
89,
-71,
2,
0,
0,
-16,
-113,
19,
13,
-72,
2,
0,
0,
-48,
-114,
19,
13,
-72,
2,
0,
0,
80,
119,
126,
-104,
-20,
0,
0,
0,
0,
0,
0,
0,
0,
0,
0,
0,
-24,
116,
126,
-104,
-20,
0,
0,
0,
106,
34,
19,
-69,
-4,
127,
0,
0,
-48,
118,
107,
-85,
-4,
127,
0,
0,
0,
0,
0,
0,
0,
0,
0,
0,
0,
0,
0,
0,
0,
0,
0,
0,
90,
-121,
17,
-69,
-4,
127,
0,
0,
96,
-43,
-125,
-69,
-4,
127,
0,
0,
0,
0,
0,
0,
0,
0,
0,
0,
32,
-11,
-125,
-69,
-4,
127,
0,
0,
26,
-7,
18,
-69,
-4,
127,
0,
0,
0,
-37,
-31,
-77,
-4,
127,
0,
0,
0,
0,
0,
0,
0,
0,
0,
0,
104,
116,
126,
-104,
-20,
0,
0,
0,
74,
-121,
17,
-69,
-4,
127,
0,
0,
-109,
-32,
-15,
-80,
-4,
127,
0,
0,
0,
0,
0,
0,
0,
0,
0,
0,
0,
0,
0,
0,
0,
0,
0,
0,
98,
34,
19,
-69,
-4,
127,
0,
0,
-112,
92,
38,
-79,
-4,
127,
0,
0,
0,
0,
0,
0,
0,
0,
0,
0,
0,
0,
0,
0,
0,
0,
0,
0,
66,
-121,
17,
-69,
-4,
127,
0,
0,
104,
-88,
71,
-79,
-70,
2,
0,
0,
5,
0,
0,
0,
0,
0,
0,
0,
116,
102,
46,
67,
111,
110,
118,
51,
68,
66,
97,
99,
107,
112,
114,
111,
112,
70,
105,
108,
116,
101,
114,
86,
50,
0,
-108,
15,
-72,
2,
0,
0,
-64,
-119,
-108,
15,
-72,
2,
0,
0,
-20,
-4,
12,
19,
-72,
2,
0,
-128,
24,
0,
0,
0,
0,
0,
0,
0,
-80,
108,
71,
-79,
-70,
2,
0,
0,
-32,
87,
-9,
-80,
-70,
2,
0,
0,
8,
2,
-121,
-69,
-4,
127,
0,
0,
-16,
55,
-32,
-80,
-70,
2,
0,
0,
3,
0,
0,
0,
3,
0,
0,
0,
96,
-43,
-125,
-69,
-4,
127,
0,
0,
-80,
-93,
50,
101,
-72,
2,
0,
0,
32,
-11,
-125,
-69,
-4,
127,
0,
0,
0,
-27,
-66,
89,
-71,
2,
0,
0,
40,
-11,
-125,
-69,
-4,
127,
0,
0,
-16,
-93,
50,
101,
-72,
2,
0,
0,
96,
-98,
50,
101,
-72,
2,
0,
0,
0,
0,
0,
0,
0,
0,
0,
0,
-109,
-32,
-15,
-80,
-4,
127,
0,
0,
106,
36,
19,
-69,
-4,
127,
0,
0,
-48,
118,
107,
-85,
-4,
127,
0,
0,
0,
0,
0,
0,
0,
0,
0,
0,
-112,
71,
38,
-79,
-4,
127,
0,
0,
90,
-121,
17,
-69,
-4,
127,
0,
0,
-80,
63,
10,
-78,
-4,
127,
0,
0,
0,
0,
0,
0,
0,
0,
0,
0,
80,
119,
126,
-104,
-20,
0,
0,
0,
26,
-6,
18,
-69,
-4,
127,
0,
0,
0,
-37,
-31,
-77,
-4,
127,
0,
0,
96,
-43,
-125,
-69,
-4,
127,
0,
0,
-96,
-93,
50,
101,
-72,
2,
0,
0,
74,
-121,
17,
-69,
-4,
127,
0,
0,
0,
0,
0,
0,
0,
0,
0,
0,
0,
0,
0,
0,
0,
0,
0,
0,
-48,
118,
107,
-85,
-4,
127,
0,
0,
98,
36,
19,
-69,
-4,
127,
0,
0,
48,
72,
38,
-79,
-4,
127,
0,
0,
8,
117,
126,
-104,
-20,
0,
0,
0,
0,
-37,
-31,
-77,
-4,
127,
0,
0,
66,
-121,
17,
-69,
-4,
127,
0,
0,
-88,
108,
71,
-79,
-70,
2,
0,
0,
1,
0,
0,
0,
0,
0,
0,
0,
116,
102,
46,
66,
114,
111,
97,
100,
99,
97,
115,
116,
71,
114,
97,
100,
105,
101,
110,
116,
65,
114,
103,
115,
0,
-36,
-114,
15,
-72,
2,
0,
0,
80,
-42,
-114,
15,
-72,
2,
0,
0,
6,
-4,
122,
19,
-72,
3,
0,
-128,
24,
0,
0,
0,
0,
0,
0,
0,
32,
57,
-32,
-80,
-70,
2,
0,
0,
0,
0,
0,
0,
0,
0,
0,
0,
0,
0,
0,
0,
0,
0,
0,
0,
-1,
-1,
-1,
-1,
-1,
-1,
-1,
-1,
0,
0,
0,
0,
0,
0,
0,
0,
0,
0,
0,
0,
0,
0,
0,
0,
0,
0,
0,
-128,
1,
0,
0,
0,
0,
0,
0,
0,
0,
0,
0,
0,
0,
0,
0,
0,
0,
0,
0,
0,
0,
0,
0,
0,
0,
0,
0,
0,
0,
0,
0,
0,
0,
0,
0,
0,
0,
0,
0,
0,
0,
0,
0,
0,
0,
0,
0,
0,
0,
0,
0,
0,
0,
0,
0,
0,
0,
0,
0,
0,
0,
0,
0,
0,
0,
0,
0,
0,
0,
0,
0,
0,
0,
0,
0,
0,
0,
0,
0,
0,
0,
0,
0,
0,
0,
0,
0,
0,
0,
0,
0,
0,
0,
0,
0,
0,
0,
0,
0,
0,
0,
0,
0,
0,
0,
0,
0,
0,
0,
0,
0,
0,
0,
0,
0,
0,
0,
0,
0,
0,
0,
0,
0,
0,
0,
0,
0,
0,
0,
0,
0,
0,
0,
0,
0,
0,
0,
0,
0,
0,
0,
0,
0,
0,
0,
0,
0,
0,
0,
0,
0,
0,
0,
0,
0,
0,
0,
0,
0,
0,
0,
0,
0,
0,
0,
0,
0,
0,
0,
0,
0,
0,
0,
0,
0,
0,
0,
0,
0,
0,
0,
0,
0,
0,
0,
0,
0,
0,
0,
0,
0,
0,
0,
0,
0,
0,
0,
0,
0,
0,
0,
0,
0,
0,
0,
0,
0,
0,
0,
0,
0,
0,
0,
0,
0,
0,
0,
0,
0,
0,
0,
0,
0,
0,
0,
0,
0,
0,
0,
0,
0,
0,
0,
0,
0,
0,
0,
0,
0,
0,
0,
0,
0,
0,
0,
0,
0,
0,
0,
0,
0,
0,
0,
0,
0,
0,
0,
0,
0,
0,
0,
0,
0,
0,
0,
0,
0,
0,
0,
0,
0,
0,
0,
0,
0,
0,
48,
47,
-113,
15,
-72,
2,
0,
0,
48,
-4,
96,
19,
-72,
4,
0,
-128,
24,
0,
0,
0,
0,
0,
0,
0,
-128,
58,
-32,
-80,
-70,
2,
0,
0,
0,
0,
0,
0,
0,
0,
0,
0,
0,
0,
0,
0,
0,
0,
0,
0,
-1,
-1,
-1,
-1,
-1,
-1,
-1,
-1,
0,
0,
0,
0,
0,
0,
0,
0,
0,
0,
0,
0,
0,
0,
0,
0,
0,
0,
0,
-128,
1,
0,
0,
0,
0,
0,
0,
0,
0,
0,
0,
0,
0,
0,
0,
0,
0,
0,
0,
0,
0,
0,
0,
0,
0,
0,
0,
0,
0,
0,
0,
0,
0,
0,
0,
0,
0,
0,
0,
0,
0,
0,
0,
0,
0,
0,
0,
0,
0,
0,
0,
0,
0,
0,
0,
0,
0,
0,
0,
0,
0,
0,
0,
0,
0,
0,
0,
0,
0,
0,
0,
0,
0,
0,
0,
0,
0,
0,
0,
0,
0,
0,
0,
0,
0,
0,
0,
0,
0,
0,
0,
0,
0,
0,
0,
0,
0,
0,
0,
0,
0,
0,
0,
0,
0,
0,
0,
0,
0,
0,
0,
0,
0,
0,
0,
0,
0,
0,
0,
0,
0,
0,
0,
0,
0,
0,
0,
0,
0,
0,
0,
0,
0,
0,
0,
0,
0,
0,
0,
0,
0,
0,
0,
0,
0,
0,
0,
0,
0,
0,
0,
0,
0,
0,
0,
0,
0,
0,
0,
0,
0,
0,
0,
0,
0,
0,
0,
0,
0,
0,
0,
0,
0,
0,
0,
0,
0,
0,
0,
0,
0,
0,
0,
0,
0,
0,
0,
0,
0,
0,
0,
0,
0,
0,
0,
0,
0,
0,
0,
0,
0,
0,
0,
0,
0,
0,
0,
0,
0,
0,
0,
0,
0,
0,
0,
0,
0,
0,
0,
0,
0,
0,
0,
0,
0,
0,
0,
0,
0,
0,
0,
0,
0,
0,
0,
0,
0,
0,
0,
0,
0,
0,
0,
0,
0,
0,
0,
0,
0,
0,
0,
0,
0,
0,
0,
0,
0,
0,
0,
0,
0,
0,
0,
0,
0,
0,
0,
0,
0,
0,
0,
0,
0,
0,
0,
0,
112,
-62,
-114,
15,
-72,
2,
0,
0,
42,
-4,
78,
19,
-72,
5,
0,
-128,
26,
0,
0,
0,
0,
0,
0,
0,
-64,
-91,
71,
-79,
-70,
2,
0,
0,
-32,
87,
-9,
-80,
-70,
2,
0,
0,
88,
2,
-121,
-69,
-4,
127,
0,
0,
16,
60,
-32,
-80,
-70,
2,
0,
0,
0,
0,
0,
0,
3,
0,
0,
0,
-112,
-61,
-114,
15,
-72,
2,
0,
0,
-64,
-61,
-114,
15,
-72,
2,
0,
0,
-80,
-54,
-114,
15,
-72,
2,
0,
0,
-112,
-46,
-114,
15,
-72,
2,
0,
0,
0,
-43,
-114,
15,
-72,
2,
0,
0,
-48,
-47,
-114,
15,
-72,
2,
0,
0,
0,
0,
0,
0,
0,
0,
0,
0,
80,
119,
126,
-104,
-20,
0,
0,
0,
0,
0,
0,
0,
0,
0,
0,
0,
-22,
34,
19,
-69,
-4,
127,
0,
0,
-48,
118,
107,
-85,
-4,
127,
0,
0,
112,
123,
43,
-79,
-4,
127,
0,
0,
0,
0,
0,
0,
0,
0,
0,
0,
90,
-121,
17,
-69,
-4,
127,
0,
0,
0,
0,
0,
0,
0,
0,
0,
0,
96,
-43,
-125,
-69,
-4,
127,
0,
0,
-80,
-93,
50,
101,
-72,
2,
0,
0,
90,
-7,
18,
-69,
-4,
127,
0,
0,
0,
-37,
-31,
-77,
-4,
127,
0,
0,
0,
-37,
-31,
-77,
-4,
127,
0,
0,
0,
0,
0,
0,
0,
0,
0,
0,
74,
-121,
17,
-69,
-4,
127,
0,
0,
0,
0,
0,
0,
0,
0,
0,
0,
-109,
-32,
-15,
-80,
-4,
127,
0,
0,
0,
0,
0,
0,
0,
0,
0,
0,
-30,
34,
19,
-69,
-4,
127,
0,
0,
-128,
87,
38,
-79,
-4,
127,
0,
0,
64,
86,
38,
-79,
-4,
127,
0,
0,
0,
0,
0,
0,
0,
0,
0,
0,
66,
-121,
17,
-69,
-4,
127,
0,
0,
-64,
-92,
71,
-79,
-70,
2,
0,
0,
5,
0,
0,
0,
0,
0,
0,
0,
116,
102,
46,
67,
111,
110,
102,
105,
103,
117,
114,
101,
68,
105,
115,
116,
114,
105,
98,
117,
116,
101,
100,
84,
80,
85,
0,
101,
-72,
2,
0,
0,
-32,
-30,
-100,
101,
-72,
2,
0,
0,
68,
-4,
-76,
19,
-72,
6,
0,
-128,
24,
0,
0,
0,
0,
0,
0,
0,
8,
-87,
71,
-79,
-70,
2,
0,
0,
-32,
87,
-9,
-80,
-70,
2,
0,
0,
-16,
-2,
-122,
-69,
-4,
127,
0,
0,
112,
61,
-32,
-80,
-70,
2,
0,
0,
2,
0,
0,
0,
3,
0,
0,
0,
96,
-43,
-125,
-69,
-4,
127,
0,
0,
32,
-90,
50,
101,
-72,
2,
0,
0,
32,
-11,
-125,
-69,
-4,
127,
0,
0,
-64,
-24,
-66,
89,
-71,
2,
0,
0,
64,
-14,
-100,
101,
-72,
2,
0,
0,
-96,
-17,
-100,
101,
-72,
2,
0,
0,
80,
119,
126,
-104,
-20,
0,
0,
0,
0,
0,
0,
0,
0,
0,
0,
0,
-24,
116,
126,
-104,
-20,
0,
0,
0,
90,
34,
19,
-69,
-4,
127,
0,
0,
-48,
118,
107,
-85,
-4,
127,
0,
0,
0,
0,
0,
0,
0,
0,
0,
0,
0,
0,
0,
0,
0,
0,
0,
0,
90,
-121,
17,
-69,
-4,
127,
0,
0,
96,
-43,
-125,
-69,
-4,
127,
0,
0,
0,
0,
0,
0,
0,
0,
0,
0,
32,
-11,
-125,
-69,
-4,
127,
0,
0,
18,
-7,
18,
-69,
-4,
127,
0,
0,
0,
-37,
-31,
-77,
-4,
127,
0,
0,
0,
0,
0,
0,
0,
0,
0,
0,
104,
116,
126,
-104,
-20,
0,
0,
0,
74,
-121,
17,
-69,
-4,
127,
0,
0,
-109,
-32,
-15,
-80,
-4,
127,
0,
0,
0,
0,
0,
0,
0,
0,
0,
0,
0,
0,
0,
0,
0,
0,
0,
0,
82,
34,
19,
-69,
-4,
127,
0,
0,
48,
93,
38,
-79,
-4,
127,
0,
0,
0,
0,
0,
0,
0,
0,
0,
0,
0,
0,
0,
0,
0,
0,
0,
0,
66,
-121,
17,
-69,
-4,
127,
0,
0,
-64,
-88,
71,
-79,
-70,
2,
0,
0,
6,
0,
0,
0,
0,
0,
0,
0,
116,
102,
46,
67,
111,
110,
118,
51,
68,
66,
97,
99,
107,
112,
114,
111,
112,
73,
110,
112,
117,
116,
86,
50,
0,
-15,
-100,
101,
-72,
2,
0,
0,
-16,
-22,
-100,
101,
-72,
2,
0,
0,
126,
-4,
-94,
19,
-72,
7,
0,
-128,
24,
0,
0,
0,
0,
0,
0,
0,
-96,
62,
-32,
-80,
-70,
2,
0,
0,
0,
0,
0,
0,
0,
0,
0,
0,
0,
0,
0,
0,
0,
0,
0,
0,
0,
0,
0,
0,
0,
0,
0,
0,
-1,
-1,
-1,
-1,
-1,
-1,
-1,
-1,
0,
0,
0,
0,
0,
0,
0,
0,
0,
0,
0,
-128,
0,
0,
0,
0,
0,
0,
0,
0,
0,
0,
0,
0,
0,
0,
0,
0,
0,
0,
0,
0,
0,
0,
0,
0,
0,
0,
0,
0,
0,
0,
0,
0,
0,
0,
0,
0,
0,
0,
0,
0,
0,
0,
0,
0,
0,
0,
0,
0,
0,
0,
0,
0,
0,
0,
0,
0,
0,
0,
0,
0,
0,
0,
0,
0,
0,
0,
0,
0,
0,
0,
0,
0,
0,
0,
0,
0,
0,
0,
0,
0,
0,
0,
0,
0,
0,
0,
0,
0,
0,
0,
0,
0,
0,
0,
0,
0,
0,
0,
0,
0,
0,
0,
0,
0,
0,
0,
0,
0,
0,
0,
0,
0,
0,
0,
0,
0,
0,
0,
0,
0,
0,
0,
0,
0,
0,
0,
0,
0,
0,
0,
0,
0,
0,
0,
0,
0,
0,
0,
0,
0,
0,
0,
0,
0,
0,
0,
0,
0,
0,
0,
0,
0,
0,
0,
0,
0,
0,
0,
0,
0,
0,
0,
0,
0,
0,
0,
0,
0,
0,
0,
0,
0,
0,
0,
0,
0,
0,
0,
0,
0,
0,
0,
0,
0,
0,
0,
0,
0,
0,
0,
0,
0,
0,
0,
0,
0,
0,
0,
0,
0,
0,
0,
0,
0,
0,
0,
0,
0,
0,
0,
0,
0,
0,
0,
0,
0,
0,
0,
0,
0,
0,
0,
0,
0,
0,
0,
0,
0,
0,
0,
0,
0,
0,
0,
0,
0,
0,
0,
0,
0,
0,
0,
0,
0,
0,
0,
0,
0,
0,
0,
0,
0,
0,
0,
0,
0,
0,
0,
0,
0,
0,
0,
0,
0,
0,
0,
0,
0,
0,
0,
0,
0,
0,
0,
0,
0,
1,
-105,
58,
20,
-70,
2,
0,
0,
104,
-4,
-120,
19,
-70,
8,
0,
-128,
26,
0,
0,
0,
0,
0,
0,
0,
-16,
-87,
71,
-79,
-70,
2,
0,
0,
-32,
87,
-9,
-80,
-70,
2,
0,
0,
112,
2,
-121,
-69,
-4,
127,
0,
0,
48,
64,
-32,
-80,
-70,
2,
0,
0,
1,
0,
0,
0,
3,
0,
0,
0,
96,
-43,
-125,
-69,
-4,
127,
0,
0,
96,
-90,
50,
101,
-72,
2,
0,
0,
-96,
-99,
58,
20,
-70,
2,
0,
0,
96,
-98,
58,
20,
-70,
2,
0,
0,
16,
-102,
58,
20,
-70,
2,
0,
0,
-32,
-103,
58,
20,
-70,
2,
0,
0,
80,
119,
126,
-104,
-20,
0,
0,
0,
0,
0,
0,
0,
0,
0,
0,
0,
-24,
116,
126,
-104,
-20,
0,
0,
0,
10,
34,
19,
-69,
-4,
127,
0,
0;
