memory_initialization_radix=10;
memory_initialization_vector=
-156,
-563,
263,
-228,
-8,
-88,
-173,
60,
-98,
-52,
-84,
38,
-211,
-70,
-1,
-110,
-39,
-23,
-38,
142,
-91,
23,
-148,
-117,
111,
-455,
159,
59,
41,
72,
52,
16,
-30,
268,
-92,
-21,
-7,
192,
-251,
-442,
-165,
-17,
-244,
-479,
334,
-63,
-5,
-98,
142,
133,
32,
25,
-26,
214,
-68,
98,
-19,
-159,
-297,
-350,
-355,
170,
-33,
-15;
