; Biases for 1_conv1d_4_Relu;1_conv1d_4_BiasAdd;1_conv1d_4_conv1d_Squeeze;1_conv1d_4_BiasAdd_ReadVariableOp_resource Shape:(1, 86, 32)
memory_initialization_radix=10;
memory_initialization_vector=
19,
0,
0,
0,
44,
13,
10,
54,
16,
70,
92,
92,
-100,
1,
0,
0,
78,
4,
0,
0,
56,
44,
13,
10,
0,
0,
0,
0,
0,
0,
0,
0,
19,
0,
0,
0,
55,
44,
13,
10,
48,
70,
92,
92,
-100,
1,
0,
0,
77,
4,
0,
0,
13,
10,
53,
51,
0,
0,
0,
0,
0,
0,
0,
0,
19,
0,
0,
0,
44,
13,
10,
55,
80,
70,
92,
92,
-100,
1,
0,
0,
75,
4,
0,
0,
57,
57,
44,
13,
0,
0,
0,
0,
0,
0,
0,
0,
19,
0,
0,
0,
50,
44,
13,
10,
112,
70,
92,
92,
-100,
1,
0,
0,
56,
4,
0,
0,
45,
50,
48,
44,
0,
0,
0,
0,
0,
0,
0,
0,
19,
0,
0,
0,
45,
50,
56,
44,
-112,
70,
92,
92,
-100,
1,
0,
0,
55,
4,
0,
0,
50,
44,
13,
10,
0,
0,
0,
0,
0,
0,
0,
0,
19,
0,
0,
0,
44,
13,
10,
50,
-80,
70,
92,
92,
-100,
1,
0,
0,
54,
4,
0,
0,
57,
44,
13,
10,
0,
0,
0,
0,
0,
0,
0,
0,
19,
0,
0,
0,
53,
44,
13,
10,
-48,
70,
92,
92,
-100,
1,
0,
0,
42,
4,
0,
0,
13,
10,
45,
50,
0,
0,
0,
0,
0,
0,
0,
0,
19,
0,
0,
0,
13,
10,
45,
54,
-16,
70,
92,
92,
-100,
1,
0,
0,
36,
4,
0,
0,
13,
10,
54,
44,
0,
0,
0,
0,
0,
0,
0,
0,
19,
0,
0,
0,
49,
55,
44,
13,
16,
71,
92,
92,
-100,
1,
0,
0,
-14,
3,
0,
0,
13,
10,
49,
49,
0,
0,
0,
0,
0,
0,
0,
0,
19,
0,
0,
0,
10,
45,
56,
44,
48,
71,
92,
92,
-100,
1,
0,
0,
3,
0,
0,
0,
0,
0,
0,
0,
0,
31,
91,
92,
-100,
1,
0,
0,
40,
38,
91,
92,
-100,
1,
0,
0,
-128,
50,
91,
92,
-100,
1,
0,
0,
-110,
4,
0,
0,
13,
10,
45,
49,
112,
71,
92,
92,
-100,
1,
0,
0,
19,
0,
0,
0,
10,
45,
53,
44,
-32,
30,
91,
92,
-100,
1,
0,
0,
3,
0,
0,
0,
0,
0,
0,
0,
-104,
30,
91,
92,
-100,
1,
0,
0,
-64,
37,
91,
92,
-100,
1,
0,
0,
24,
50,
91,
92,
-100,
1,
0,
0,
1,
0,
0,
0,
44,
13,
10,
51,
-80,
71,
92,
92,
-100,
1,
0,
0,
0,
0,
0,
0,
0,
0,
0,
0,
44,
13,
10,
54,
44,
13,
10,
55,
44,
13,
10,
56,
44,
13,
10,
45,
50,
55,
44,
13,
10,
49,
44,
13,
10,
45,
54,
44,
13,
10,
45,
50,
48,
44,
13,
10,
45,
52,
44,
13,
10,
49,
57,
44,
13,
10,
45,
49,
54,
44,
13,
10,
50,
44,
13,
10,
52,
44,
13,
10,
52,
44,
13,
10,
52,
44,
13,
10,
45,
56,
50,
44,
13,
10,
45,
49,
50,
55,
44,
13,
10,
50,
49,
44,
13,
10,
49,
57,
44,
13,
10,
55,
44,
13,
10,
45,
49,
48,
44,
13,
10,
49,
53,
44,
13,
10,
49,
52,
44,
13,
10,
45,
55,
44,
13,
10,
45,
54,
44,
13,
10,
45,
51,
53,
44,
13,
10,
45,
55,
44,
13,
10,
45,
54,
44,
13,
10,
50,
49,
44,
13,
10,
51,
54,
44,
13,
10,
57,
44,
13,
10,
45,
52,
44,
13,
10,
56,
44,
13,
10,
45,
50,
44,
13,
10,
49,
48,
44,
13,
10,
45,
50,
44,
13,
10,
49,
52,
44,
13,
10,
45,
55,
44,
13,
10,
57,
44,
13,
10,
45,
49,
51,
44,
13,
10,
49,
44,
13,
10,
49,
57,
44,
13,
10,
49,
49,
44,
13,
10,
49,
48,
44,
13,
10,
54,
44,
13,
10,
45,
53,
44,
13,
10,
51,
44,
13,
10,
45,
49,
48,
53,
44,
13,
10,
45,
57,
48,
44,
13,
10,
49,
48,
44,
13,
10,
49,
44,
13,
10,
50,
44,
13,
10,
45,
53,
44,
13,
10,
45,
52,
44,
13,
10,
45,
50,
44,
13,
10,
57,
44,
13,
10,
48,
44,
13,
10,
49,
51,
44,
13,
10,
45,
49,
54,
44,
13,
10,
45,
56,
44,
13,
10,
45,
51,
44,
13,
10,
45,
49,
48,
48,
44,
13,
10,
50,
44,
13,
10,
49,
44,
13,
10,
45,
50,
44,
13,
10,
45,
57,
54,
44,
13,
10,
57,
44,
13,
10,
49,
48,
44,
13,
10,
45,
49,
55,
44,
13,
10,
45,
50,
48,
44,
13,
10,
49,
44,
13,
10,
54,
44,
13,
10,
49,
44,
13,
10,
49,
54,
44,
13,
10,
45,
51,
44,
13,
10,
45,
55,
44,
13,
10,
45,
51,
44,
13,
10,
49,
44,
13,
10,
56,
44,
13,
10,
45,
50,
56,
44,
13,
10,
45,
56,
44,
13,
10,
45,
49,
48,
44,
13,
10,
45,
49,
44,
13,
10,
45,
49,
53,
44,
13,
10,
45,
57,
44,
13,
10,
57,
44,
13,
10,
45,
50,
44,
13,
10,
45,
51,
44,
13,
10,
45,
57,
44,
13,
10,
45,
53,
44,
13,
10,
45,
52,
48,
44,
13,
10,
45,
54,
44,
13,
10,
48,
44,
13,
10,
45,
55,
51,
44,
13,
10,
45,
49,
49,
44,
13,
10,
49,
44,
13,
10,
49,
54,
44,
13,
10,
45,
52,
48,
44,
13,
10,
50,
44,
13,
10,
45,
56,
44,
13,
10,
45,
53,
52,
44,
13,
10,
45,
54,
44,
13,
10,
49,
49,
44,
13,
10,
52,
44,
13,
10,
45,
49,
48,
44,
13,
10,
50,
49,
44,
13,
10,
52,
44,
13,
10,
45,
50,
50,
44,
13,
10,
57,
44,
13,
10,
49,
49,
44,
13,
10,
49,
51,
44,
13,
10,
45,
50,
51,
44,
13,
10,
45,
49,
54,
44,
13,
10,
49,
44,
13,
10,
51,
44,
13,
10,
45,
50,
52,
44,
13,
10,
45,
55,
52,
44,
13,
10,
49,
50,
44,
13,
10,
45,
49,
50,
44,
13,
10,
45,
49,
53,
44,
13,
10,
45,
52,
48,
44,
13,
10,
51,
44,
13,
10,
45,
49,
50,
55,
44,
13,
10,
50,
44,
13,
10,
51,
48,
44,
13,
10,
45,
55,
54,
44,
13,
10,
45,
52,
44,
13,
10,
49,
48,
44,
13,
10,
50,
55,
44,
13,
10,
45,
52,
51,
44,
13,
10,
55,
44,
13,
10,
45,
51,
52,
44,
13,
10,
45,
49,
49,
52,
44,
13,
10,
45,
51,
44,
13,
10,
50,
49,
44,
13,
10,
45,
49,
51,
44,
13,
10,
49,
49,
44,
13,
10,
50,
56,
44,
13,
10,
53,
44,
13,
10,
50,
57,
44,
13,
10,
49,
50,
44,
13,
10,
49,
54,
44,
13,
10,
49,
55,
44,
13,
10,
50,
54,
44,
13,
10,
51,
53,
44,
13,
10,
49,
55,
44,
13,
10,
49,
55,
44,
13,
10,
53,
50,
44,
13,
10,
51,
55,
44,
13,
10,
45,
56,
44,
13,
10,
50,
49,
44,
13,
10,
45,
50,
44,
13,
10,
51,
53,
44,
13,
10,
49,
48,
44,
13,
10,
57,
48,
44,
13,
10,
45,
51,
56,
44,
13,
10,
45,
50,
57,
44,
13,
10,
50,
57,
44,
13,
10,
55,
44,
13,
10,
50,
44,
13,
10,
45,
49,
50,
44,
13,
10,
49,
48,
44,
13,
10,
49,
54,
44,
13,
10,
51,
53,
44,
13,
10,
53,
51,
44,
13,
10,
51,
54,
44,
13,
10,
53,
44,
13,
10,
45,
52,
54,
44,
13,
10,
57,
44,
13,
10,
54,
44,
13,
10,
45,
49,
49,
44,
13,
10,
49,
44,
13,
10,
45,
54,
44,
13,
10,
45,
49,
49,
44,
13,
10,
45,
55,
44,
13,
10,
51,
54,
44,
13,
10,
55,
50,
44,
13,
10,
45,
54,
44,
13,
10,
48,
44,
13,
10,
52,
49,
44,
13,
10,
50,
50,
44,
13,
10,
45,
50,
52,
44,
13,
10,
45,
49,
50,
44,
13,
10,
49,
48,
44,
13,
10,
49,
56,
44,
13,
10,
54,
44,
13,
10,
54,
51,
44,
13,
10,
45,
53,
52,
44,
13,
10,
45,
50,
48,
44,
13,
10,
54,
54,
44,
13,
10,
45,
51,
44,
13,
10,
45,
53,
55,
44,
13,
10,
45,
50,
54,
44,
13,
10,
50,
51,
44,
13,
10,
48,
44,
13,
10,
57,
44,
13,
10,
53,
53,
44,
13,
10,
49,
53,
44,
13,
10,
45,
50,
51,
44,
13,
10,
45,
52,
44,
13,
10,
45,
49,
56,
44,
13,
10,
45,
49,
52,
44,
13,
10,
45,
56,
44,
13,
10,
45,
50,
55,
44,
13,
10,
45,
52,
51,
44,
13,
10,
45,
52,
57,
44,
13,
10,
45,
51,
56,
44,
13,
10,
54,
54,
44,
13,
10,
57,
51,
44,
13,
10,
45,
56,
57,
44,
13,
10,
45,
52,
57,
44,
13,
10,
49,
50,
44,
13,
10,
54,
53,
44,
13,
10,
45,
54,
53,
44,
13,
10,
45,
57,
50,
44,
13,
10,
50,
56,
44,
13,
10,
45,
49,
53,
44,
13,
10,
45,
54,
44,
13,
10,
55,
55,
44,
13,
10,
45,
50,
56,
44,
13,
10,
45,
57,
50,
44,
13,
10,
50,
54,
44,
13,
10,
45,
52,
44,
13,
10,
45,
49,
51,
44,
13,
10,
45,
56,
54,
44,
13,
10,
56,
44,
13,
10,
45,
53,
44,
13,
10,
45,
49,
48,
44,
13,
10,
49,
50,
55,
44,
13,
10,
49,
53,
44,
13,
10,
45,
54,
53,
44,
13,
10,
55,
53,
44,
13,
10,
45,
56,
54,
44,
13,
10,
50,
57,
44,
13,
10,
49,
50,
44,
13,
10,
45,
54,
52,
44,
13,
10,
45,
55,
57,
44,
13,
10,
45,
49,
50,
55,
44,
13,
10,
45,
52,
56,
44,
13,
10,
48,
44,
13,
10,
55,
54,
44,
13,
10,
45,
53,
55,
44,
13,
10,
45,
57,
54,
44,
13,
10,
45,
50,
53,
44,
13,
10,
54,
50,
44,
13,
10,
56,
49,
44,
13,
10,
45,
49,
50,
48,
44,
13,
10,
50,
48,
44,
13,
10,
55,
53,
44,
13,
10,
45,
49,
49,
44,
13,
10,
52,
55,
44,
13,
10,
45,
50,
49,
44,
13,
10,
45,
52,
44,
13,
10,
45,
53,
49,
44,
13,
10,
53,
56,
44,
13,
10,
45,
55,
50,
44,
13,
10,
51,
48,
44,
13,
10,
51,
50,
44,
13,
10,
45,
53,
44,
13,
10,
45,
54,
53,
44,
13,
10,
49,
57,
44,
13,
10,
45,
54,
52,
44,
13,
10,
45,
56,
52,
44,
13,
10,
54,
53,
44,
13,
10,
45,
55,
57,
44,
13,
10,
55,
50,
44,
13,
10,
45,
50,
55,
44,
13,
10,
45,
49,
51,
44,
13,
10,
45,
50,
51,
44,
13,
10,
49,
44,
13,
10,
45,
57,
53,
44,
13,
10,
45,
54,
44,
13,
10,
45,
50,
44,
13,
10,
45,
50,
51,
44,
13,
10,
49,
54,
44,
13,
10,
52,
44,
13,
10,
45,
51,
44,
13,
10,
50,
57,
44,
13,
10,
45,
54,
56,
44,
13,
10,
45,
53,
50,
44,
13,
10,
45,
52,
51,
44,
13,
10,
45,
53,
54,
44,
13,
10,
45,
53,
49,
44,
13,
10,
45,
57,
54,
44,
13,
10,
52,
53,
44,
13,
10,
55,
48,
44,
13,
10,
45,
49,
48,
54,
44,
13,
10,
45,
53,
51,
44,
13,
10,
45,
55,
54,
44,
13,
10,
45,
56,
57,
44,
13,
10,
45,
55,
51,
44,
13,
10,
52,
48,
44,
13,
10,
45,
52,
52,
44,
13,
10,
45,
49,
49,
54,
44,
13,
10,
52,
56,
44,
13,
10,
53,
57,
44,
13,
10,
55,
53,
44,
13,
10,
45,
50,
57,
44,
13,
10,
45,
56,
48,
44,
13,
10,
45,
53,
53,
44,
13,
10,
50,
55,
44,
13,
10,
45,
57,
49,
44,
13,
10,
45,
56,
51,
44,
13,
10,
45,
49,
56,
44,
13,
10,
52,
55,
44,
13,
10,
45,
49,
50,
49,
44,
13,
10,
49,
50,
44,
13,
10,
45,
51,
56,
44,
13,
10,
52,
55,
44,
13,
10,
45,
51,
51,
44,
13,
10,
51,
53,
44,
13,
10,
49,
50,
44,
13,
10,
54,
44,
13,
10,
45,
56,
48,
44,
13,
10,
53,
48,
44,
13,
10,
51,
52,
44,
13,
10,
45,
49,
54,
44,
13,
10,
51,
51,
44,
13,
10,
45,
51,
57,
44,
13,
10,
45,
57,
53,
44,
13,
10,
45,
56,
51,
44,
13,
10,
45,
50,
48,
44,
13,
10,
45,
51,
51,
44,
13,
10,
45,
49,
55,
44,
13,
10,
45,
51,
50,
44,
13,
10,
45,
57,
44,
13,
10,
45,
53,
44,
13,
10,
56,
44,
13,
10,
56,
44,
13,
10,
52,
48,
44,
13,
10,
55,
44,
13,
10,
45,
57,
44,
13,
10,
45,
49,
53,
44,
13,
10,
45,
50,
44,
13,
10,
45,
49,
51,
44,
13,
10,
45,
57,
52,
44,
13,
10,
45,
56,
53,
44,
13,
10,
45,
52,
44,
13,
10,
49,
54,
44,
13,
10,
45,
51,
44,
13,
10,
45,
52,
44,
13,
10,
45,
55,
48,
44,
13,
10,
49,
56,
44,
13,
10,
50,
49,
44,
13,
10,
49,
49,
44,
13,
10,
50,
49,
44,
13,
10,
54,
56,
44,
13,
10,
45,
53,
44,
13,
10,
45,
55,
54,
44,
13,
10,
45,
49,
50,
55,
44,
13,
10,
51,
50,
44,
13,
10,
54,
44,
13,
10,
45,
54,
55,
44,
13,
10,
56,
44,
13,
10,
50,
54,
44,
13,
10,
51,
44,
13,
10,
50,
54,
44,
13,
10,
53,
44,
13,
10,
52,
44,
13,
10,
45,
51,
44,
13,
10,
45,
49,
50,
44,
13,
10,
50,
57,
44,
13,
10,
50,
48,
44,
13,
10,
45,
49,
52,
44,
13,
10,
45,
54,
44,
13,
10,
49,
54,
44,
13,
10,
45,
49,
48,
44,
13,
10,
45,
51,
54,
44,
13,
10,
45,
53,
55,
44,
13,
10,
45,
49,
44,
13,
10,
49,
48,
44,
13,
10,
45,
51,
55,
44,
13,
10,
48,
44,
13,
10,
49,
48,
44,
13,
10,
48,
44,
13,
10,
50,
51,
44,
13,
10,
49,
44,
13,
10,
55,
44,
13,
10,
45,
51,
52,
44,
13,
10,
45,
52,
44,
13,
10,
45,
50,
51,
44,
13,
10,
45,
49,
50,
48,
44,
13,
10,
49,
44,
13,
10,
45,
49,
44,
13,
10,
45,
50,
54,
44,
13,
10,
49,
56,
44,
13,
10,
49,
51,
44,
13,
10,
45,
55,
44,
13,
10,
45,
50,
52,
44,
13,
10,
45,
49,
50,
44,
13,
10,
50,
56,
44,
13,
10,
48,
44,
13,
10,
49,
53,
44,
13,
10,
49,
56,
44,
13,
10,
49,
44,
13,
10,
50,
52,
44,
13,
10,
52,
44,
13,
10,
50,
52,
44,
13,
10,
49,
54,
44,
13,
10,
45,
51,
56,
44,
13,
10,
45,
50,
48,
44,
13,
10,
45,
53,
44,
13,
10,
45,
50,
51,
44,
13,
10,
45,
53,
50,
44,
13,
10,
45,
49,
49,
44,
13,
10,
53,
51,
44,
13,
10,
49,
49,
44,
13,
10,
56,
44,
13,
10,
45,
49,
52,
44,
13,
10,
45,
49,
49,
44,
13,
10,
45,
56,
48,
44,
13,
10,
52,
44,
13,
10,
56,
44,
13,
10,
45,
57,
56,
44,
13,
10,
45,
55,
44,
13,
10,
45,
49,
51,
44,
13,
10,
51,
53,
44,
13,
10,
49,
56,
44,
13,
10,
49,
57,
44,
13,
10,
52,
44,
13,
10,
45,
56,
57,
44,
13,
10,
50,
48,
44,
13,
10,
45,
54,
44,
13,
10,
45,
57,
44,
13,
10,
49,
52,
44,
13,
10,
49,
52,
44,
13,
10,
55,
44,
13,
10,
53,
44,
13,
10,
49,
44,
13,
10,
45,
49,
44,
13,
10,
45,
51,
44,
13,
10,
45,
54,
48,
44,
13,
10,
45,
53,
53,
44,
13,
10,
55,
44,
13,
10,
49,
53,
44,
13,
10,
49,
49,
44,
13,
10,
49,
49,
44,
13,
10,
45,
49,
44,
13,
10,
53,
44,
13,
10,
49,
56,
44,
13,
10,
50,
44,
13,
10,
49,
48,
44,
13,
10,
57,
44,
13,
10,
45,
50,
52,
44,
13,
10,
49,
48,
44,
13,
10,
45,
55,
48,
44,
13,
10,
56,
44,
13,
10,
45,
50,
56,
44,
13,
10,
49,
48,
44;
