; Biases for 1_conv1d_5_Relu;1_conv1d_5_BiasAdd;1_conv1d_5_conv1d_Squeeze;1_conv1d_5_BiasAdd_ReadVariableOp_resource;1_conv1d_5_conv1d Shape:(1, 1, 41, 64)
memory_initialization_radix=10;
memory_initialization_vector=
13,
10,
50,
57,
44,
13,
10,
49,
53,
44,
13,
10,
50,
55,
44,
13,
10,
52,
44,
13,
10,
51,
49,
44,
13,
10,
53,
44,
13,
10,
45,
57,
44,
13,
10,
45,
49,
44,
13,
10,
49,
44,
13,
10,
50,
44,
13,
10,
45,
57,
52,
44,
13,
10,
49,
52,
44,
13,
10,
50,
52,
44,
13,
10,
49,
50,
44,
13,
10,
48,
44,
13,
10,
50,
49,
44,
13,
10,
49,
52,
44,
13,
10,
52,
44,
13,
10,
48,
44,
13,
10,
52,
44,
13,
10,
45,
52,
57,
44,
13,
10,
45,
49,
44,
13,
10,
49,
52,
44,
13,
10,
51,
44,
13,
10,
49,
57,
44,
13,
10,
51,
44,
13,
10,
51,
49,
44,
13,
10,
45,
53,
44,
13,
10,
50,
50,
44,
13,
10,
54,
44,
13,
10,
56,
44,
13,
10,
49,
56,
44,
13,
10,
49,
52,
44,
13,
10,
49,
50,
44,
13,
10,
54,
44,
13,
10,
45,
49,
44,
13,
10,
49,
48,
44,
13,
10,
45,
50,
44,
13,
10,
51,
51,
44,
13,
10,
53,
49,
44,
13,
10,
49,
44,
13,
10,
49,
57,
44,
13,
10,
51,
52,
44,
13,
10,
50,
57,
44,
13,
10,
45,
55,
44,
13,
10,
57,
44,
13,
10,
49,
49,
44,
13,
10,
51,
51,
44,
13,
10,
49,
57,
44,
13,
10,
54,
50,
44,
13,
10,
53,
44,
13,
10,
45,
49,
48,
44,
13,
10,
52,
50,
44,
13,
10,
49,
44,
13,
10,
55,
44,
13,
10,
45,
49,
49,
44,
13,
10,
45,
49,
56,
44,
13,
10,
53,
44,
13,
10,
49,
51,
44,
13,
10,
54,
49,
44,
13,
10,
51,
44,
13,
10,
53,
44,
13,
10,
49,
55,
44,
13,
10,
57,
44,
13,
10,
49,
50,
44,
13,
10,
45,
49,
48,
44,
13,
10,
45,
52,
44,
13,
10,
45,
49,
44,
13,
10,
45,
49,
54,
44,
13,
10,
45,
49,
44,
13,
10,
53,
53,
44,
13,
10,
55,
48,
44,
13,
10,
52,
44,
13,
10,
48,
44,
13,
10,
50,
48,
44,
13,
10,
54,
44,
13,
10,
45,
50,
54,
44,
13,
10,
55,
44,
13,
10,
45,
55,
44,
13,
10,
49,
52,
44,
13,
10,
48,
44,
13,
10,
52,
49,
44,
13,
10,
45,
49,
56,
44,
13,
10,
45,
49,
53,
44,
13,
10,
55,
53,
44,
13,
10,
54,
44,
13,
10,
45,
50,
49,
44,
13,
10,
45,
50,
50,
44,
13,
10,
54,
44,
13,
10,
48,
44,
13,
10,
50,
44,
13,
10,
50,
52,
44,
13,
10,
45,
50,
44,
13,
10,
45,
49,
48,
44,
13,
10,
45,
52,
57,
44,
13,
10,
45,
51,
44,
13,
10,
45,
57,
44,
13,
10,
45,
49,
57,
44,
13,
10,
45,
50,
44,
13,
10,
45,
51,
55,
44,
13,
10,
45,
52,
51,
44,
13,
10,
45,
51,
51,
44,
13,
10,
57,
52,
44,
13,
10,
49,
50,
55,
44,
13,
10,
45,
52,
56,
44,
13,
10,
45,
50,
49,
44,
13,
10,
54,
44,
13,
10,
49,
57,
44,
13,
10,
45,
53,
56,
44,
13,
10,
45,
51,
48,
44,
13,
10,
45,
50,
44,
13,
10,
53,
44,
13,
10,
45,
49,
48,
44,
13,
10,
53,
57,
44,
13,
10,
45,
52,
54,
44,
13,
10,
45,
54,
50,
44,
13,
10,
50,
54,
44,
13,
10,
45,
49,
57,
44,
13,
10,
45,
53,
55,
44,
13,
10,
45,
53,
48,
44,
13,
10,
49,
52,
44,
13,
10,
45,
49,
55,
44,
13,
10,
54,
44,
13,
10,
55,
53,
44,
13,
10,
49,
44,
13,
10,
50,
44,
13,
10,
50,
44,
13,
10,
50,
52,
44,
13,
10,
49,
53,
44,
13,
10,
49,
52,
44,
13,
10,
50,
50,
44,
13,
10,
49,
49,
44,
13,
10,
49,
55,
44,
13,
10,
53,
44,
13,
10,
49,
57,
44,
13,
10,
51,
49,
44,
13,
10,
51,
44,
13,
10,
51,
50,
44,
13,
10,
52,
52,
44,
13,
10,
51,
53,
44,
13,
10,
45,
49,
51,
44,
13,
10,
45,
50,
44,
13,
10,
45,
49,
50,
44,
13,
10,
51,
50,
44,
13,
10,
56,
44,
13,
10,
53,
55,
44,
13,
10,
45,
49,
57,
44,
13,
10,
51,
44,
13,
10,
50,
55,
44,
13,
10,
49,
51,
44,
13,
10,
45,
50,
44,
13,
10,
45,
49,
52,
44,
13,
10,
50,
49,
44,
13,
10,
45,
53,
44,
13,
10,
50,
53,
44,
13,
10,
53,
48,
44,
13,
10,
49,
53,
44,
13,
10,
45,
49,
52,
44,
13,
10,
45,
50,
54,
44,
13,
10,
49,
51,
44,
13,
10,
54,
44,
13,
10,
51,
44,
13,
10,
48,
44,
13,
10,
45,
55,
44,
13,
10,
45,
53,
44,
13,
10,
45,
49,
53,
44,
13,
10,
53,
53,
44,
13,
10,
54,
57,
44,
13,
10,
45,
50,
44,
13,
10,
56,
44,
13,
10,
50,
55,
44,
13,
10,
49,
55,
44,
13,
10,
45,
50,
57,
44,
13,
10,
45,
49,
44,
13,
10,
45,
50,
44,
13,
10,
57,
44,
13,
10,
49,
48,
44,
13,
10,
52,
52,
44,
13,
10,
45,
53,
50,
44,
13,
10,
45,
49,
52,
44,
13,
10,
54,
56,
44,
13,
10,
49,
52,
44,
13,
10,
45,
52,
48,
44,
13,
10,
45,
50,
49,
44,
13,
10,
55,
44,
13,
10,
54,
44,
13,
10,
49,
55,
44,
13,
10,
52,
52,
44,
13,
10,
49,
50,
44,
13,
10,
45,
51,
50,
44,
13,
10,
45,
52,
53,
44,
13,
10,
45,
50,
48,
44,
13,
10,
45,
57,
44,
13,
10,
45,
50,
48,
44,
13,
10,
45,
54,
44,
13,
10,
45,
53,
55,
44,
13,
10,
45,
51,
55,
44,
13,
10,
45,
52,
57,
44,
13,
10,
57,
54,
44,
13,
10,
49,
50,
55,
44,
13,
10,
45,
52,
51,
44,
13,
10,
45,
49,
57,
44,
13,
10,
49,
50,
44,
13,
10,
50,
55,
44,
13,
10,
45,
54,
53,
44,
13,
10,
45,
50,
55,
44,
13,
10,
45,
51,
44,
13,
10,
49,
48,
44,
13,
10,
45,
49,
50,
44,
13,
10,
53,
49,
44,
13,
10,
45,
51,
56,
44,
13,
10,
45,
54,
56,
44,
13,
10,
50,
56,
44,
13,
10,
50,
44,
13,
10,
45,
53,
49,
44,
13,
10,
45,
53,
49,
44,
13,
10,
49,
44,
13,
10,
45,
49,
55,
44,
13,
10,
49,
51,
44,
13,
10,
54,
50,
44,
13,
10,
45,
49,
44,
13,
10,
52,
44,
13,
10,
49,
50,
44,
13,
10,
45,
57,
44,
13,
10,
49,
50,
44,
13,
10,
57,
44,
13,
10,
49,
50,
44,
13,
10,
49,
52,
44,
13,
10,
57,
44,
13,
10,
57,
44,
13,
10,
49,
55,
44,
13,
10,
52,
54,
44,
13,
10,
45,
51,
44,
13,
10,
50,
50,
44,
13,
10,
54,
55,
44,
13,
10,
55,
44,
13,
10,
49,
54,
44,
13,
10,
45,
49,
55,
44,
13,
10,
45,
57,
44,
13,
10,
50,
44,
13,
10,
45,
57,
44,
13,
10,
56,
55,
44,
13,
10,
49,
53,
44,
13,
10,
50,
56,
44,
13,
10,
45,
51,
55,
44,
13,
10,
45,
49,
54,
44,
13,
10,
57,
44,
13,
10,
49,
44,
13,
10,
45,
53,
44,
13,
10,
45,
49,
48,
44,
13,
10,
49,
56,
44,
13,
10,
57,
48,
44,
13,
10,
45,
49,
50,
44,
13,
10,
45,
49,
49,
44,
13,
10,
49,
48,
44,
13,
10,
45,
49,
54,
44,
13,
10,
45,
51,
51,
44,
13,
10,
57,
44,
13,
10,
55,
44,
13,
10,
49,
54,
44,
13,
10,
45,
51,
44,
13,
10,
45,
49,
48,
44,
13,
10,
50,
48,
44,
13,
10,
51,
52,
44,
13,
10,
49,
55,
44,
13,
10,
49,
55,
44,
13,
10,
49,
54,
44,
13,
10,
52,
44,
13,
10,
45,
50,
55,
44,
13,
10,
51,
44,
13,
10,
45,
50,
52,
44,
13,
10,
45,
53,
44,
13,
10,
50,
44,
13,
10,
55,
49,
44,
13,
10,
45,
49,
49,
44,
13,
10,
45,
51,
55,
44,
13,
10,
45,
53,
53,
44,
13,
10,
45,
49,
44,
13,
10,
49,
49,
44,
13,
10,
45,
52,
56,
44,
13,
10,
45,
56,
44,
13,
10,
51,
44,
13,
10,
51,
44,
13,
10,
54,
54,
44,
13,
10,
45,
49,
54,
44,
13,
10,
45,
49,
52,
44,
13,
10,
53,
44,
13,
10,
45,
50,
56,
44,
13,
10,
45,
51,
52,
44,
13,
10,
49,
50,
44,
13,
10,
45,
49,
44,
13,
10,
53,
44,
13,
10,
45,
50,
44,
13,
10,
45,
50,
54,
44,
13,
10,
49,
57,
44,
13,
10,
51,
57,
44,
13,
10,
48,
44,
13,
10,
54,
44,
13,
10,
49,
51,
44,
13,
10,
54,
44,
13,
10,
45,
57,
56,
44,
13,
10,
45,
49,
56,
44,
13,
10,
45,
49,
52,
44,
13,
10,
55,
44,
13,
10,
45,
49,
53,
44,
13,
10,
54,
48,
44,
13,
10,
45,
52,
44,
13,
10,
45,
57,
51,
44,
13,
10,
49,
50,
55,
44,
13,
10,
48,
44,
13,
10,
45,
50,
53,
44,
13,
10,
45,
49,
48,
53,
44,
13,
10,
45,
51,
44,
13,
10,
45,
49,
50,
44,
13,
10,
45,
50,
44,
13,
10,
52,
55,
44,
13,
10,
45,
50,
54,
44,
13,
10,
45,
52,
44,
13,
10,
52,
44,
13,
10,
45,
51,
44,
13,
10,
45,
49,
44,
13,
10,
45,
55,
48,
44,
13,
10,
45,
49,
52,
44,
13,
10,
55,
44,
13,
10,
45,
51,
44,
13,
10,
45,
49,
44,
13,
10,
53,
50,
44,
13,
10,
54,
52,
44,
13,
10,
45,
49,
54,
44,
13,
10,
45,
51,
53,
44,
13,
10,
45,
49,
44,
13,
10,
45,
54,
48,
44,
13,
10,
57,
44,
13,
10,
45,
49,
54,
44,
13,
10,
45,
54,
51,
44,
13,
10,
45,
49,
50,
55,
44,
13,
10,
45,
54,
51,
44,
13,
10,
49,
55,
44,
13,
10,
45,
50,
44,
13,
10,
52,
44,
13,
10,
49,
49,
44,
13,
10,
45,
50,
54,
44,
13,
10,
50,
44,
13,
10,
53,
44,
13,
10,
49,
51,
44,
13,
10,
45,
49,
50,
44,
13,
10,
45,
50,
51,
44,
13,
10,
50,
54,
44,
13,
10,
50,
44,
13,
10,
45,
51,
44,
13,
10,
52,
44,
13,
10,
51,
44,
13,
10,
45,
51,
44,
13,
10,
45,
54,
44,
13,
10,
45,
57,
44,
13,
10,
48,
44,
13,
10,
45,
49,
44,
13,
10,
48,
44,
13,
10,
49,
51,
44,
13,
10,
50,
50,
44,
13,
10,
49,
48,
44,
13,
10,
45,
50,
50,
44,
13,
10,
45,
50,
56,
44,
13,
10,
45,
50,
55,
44,
13,
10,
49,
53,
44,
13,
10,
45,
49,
44,
13,
10,
45,
52,
44,
13,
10,
45,
50,
49,
44,
13,
10,
51,
44,
13,
10,
45,
53,
56,
44,
13,
10,
53,
44,
13,
10,
51,
44,
13,
10,
49,
56,
44,
13,
10,
45,
49,
49,
44,
13,
10,
49,
44,
13,
10,
53,
44,
13,
10,
49,
50,
44,
13,
10,
49,
44,
13,
10,
45,
49,
51,
44,
13,
10,
45,
53,
48,
44,
13,
10,
45,
50,
44,
13,
10,
55,
44,
13,
10,
51,
44,
13,
10,
52,
44,
13,
10,
50,
53,
44,
13,
10,
57,
44,
13,
10,
48,
44,
13,
10,
56,
44,
13,
10,
55,
44,
13,
10,
55,
44,
13,
10,
49,
51,
44,
13,
10,
50,
52,
44,
13,
10,
51,
44,
13,
10,
53,
44,
13,
10,
45,
52,
44,
13,
10,
45,
51,
53,
44,
13,
10,
50,
44,
13,
10,
45,
56,
44,
13,
10,
50,
57,
44,
13,
10,
45,
51,
55,
44,
13,
10,
45,
50,
44,
13,
10,
45,
55,
50,
44,
13,
10,
55,
44,
13,
10,
57,
44,
13,
10,
49,
53,
44,
13,
10,
45,
49,
52,
44,
13,
10,
49,
49,
44,
13,
10,
50,
44,
13,
10,
45,
49,
44,
13,
10,
45,
49,
51,
44,
13,
10,
49,
56,
44,
13,
10,
45,
56,
49,
44,
13,
10,
51,
44,
13,
10,
49,
55,
44,
13,
10,
45,
50,
44,
13,
10,
52,
44,
13,
10,
49,
54,
44,
13,
10,
49,
56,
44,
13,
10,
50,
52,
44,
13,
10,
45,
49,
44,
13,
10,
48,
44,
13,
10,
49,
48,
44,
13,
10,
50,
51,
44,
13,
10,
51,
53,
44,
13,
10,
49,
44,
13,
10,
50,
51,
44,
13,
10,
51,
49,
44,
13,
10,
50,
51,
44,
13,
10,
45,
49,
52,
44,
13,
10,
49,
53,
44,
13,
10,
45,
49,
49,
44,
13,
10,
51,
50,
44,
13,
10,
49,
51,
44,
13,
10,
54,
49,
44,
13,
10,
45,
50,
50,
44,
13,
10,
45,
49,
49,
44,
13,
10,
52,
48,
44,
13,
10,
55,
44,
13,
10,
54,
44,
13,
10,
45,
49,
52,
44,
13,
10,
49,
57,
44,
13,
10,
48,
44,
13,
10,
49,
48,
44,
13,
10,
52,
55,
44,
13,
10,
49,
54,
44,
13,
10,
45,
57,
44,
13,
10,
45,
50,
49,
44,
13,
10,
48,
44,
13,
10,
45,
57,
44,
13,
10,
50,
44,
13,
10,
49,
52,
44,
13,
10,
45,
49,
44,
13,
10,
50,
44,
13,
10,
45,
49,
57,
44,
13,
10,
52,
52,
44,
13,
10,
52,
56,
44,
13,
10,
53,
44,
13,
10,
49,
50,
44,
13,
10,
49,
56,
44,
13,
10,
49,
53,
44,
13,
10,
45,
49,
53,
44,
13,
10,
45,
54,
44,
13,
10,
53,
44,
13,
10,
51,
48,
44,
13,
10,
45,
52,
44,
13,
10,
52,
57,
44,
13,
10,
45,
53,
50,
44,
13,
10,
45,
51,
49,
44,
13,
10,
52,
54,
44,
13,
10,
49,
44,
13,
10,
45,
51,
55,
44,
13,
10,
45,
50,
50,
44,
13,
10,
45,
52,
44,
13,
10,
49,
44,
13,
10,
50,
48,
44,
13,
10,
50,
51,
44,
13,
10,
49,
48,
44,
13,
10,
45,
49,
57,
44,
13,
10,
45,
52,
56,
44,
13,
10,
45,
49,
48,
44,
13,
10,
45,
50,
44,
13,
10,
45,
49,
48,
44,
13,
10,
50,
44,
13,
10,
45,
52,
56,
44,
13,
10,
45,
51,
48,
44,
13,
10,
45,
53,
51,
44,
13,
10,
57,
54,
44,
13,
10,
49,
50,
55,
44,
13,
10,
45,
51,
55,
44,
13,
10,
45,
49,
48,
44,
13,
10,
50,
55,
44,
13,
10,
50,
53,
44,
13,
10,
45,
53,
56,
44,
13,
10,
45,
51,
48,
44,
13,
10,
54,
44,
13,
10,
51,
51,
44,
13,
10,
45,
49,
48,
44,
13,
10,
51,
56,
44,
13,
10,
45,
51,
56,
44,
13,
10,
45,
52,
55,
44,
13,
10,
51,
52,
44,
13,
10,
55,
44,
13,
10,
45,
51,
55,
44,
13,
10,
45,
51,
57,
44,
13,
10,
49,
50,
44,
13,
10,
45,
49,
49,
44,
13,
10,
52,
44,
13,
10,
54,
51,
44,
13,
10,
49,
50,
44,
13,
10,
45,
52,
44,
13,
10,
49,
48,
44,
13,
10,
57,
44,
13,
10,
50,
57,
44,
13,
10,
48,
44,
13,
10,
48,
44,
13,
10,
57,
44,
13,
10,
49,
44,
13,
10,
57,
44,
13,
10,
45,
55,
53,
44,
13,
10,
45,
49,
50,
55,
44;
