; Biases for 1_conv1d_4_BiasAdd_ReadVariableOp_resource Shape:(32,)
memory_initialization_radix=10;
memory_initialization_vector=
-1322,
257,
-971,
-2466,
-142,
278,
-785,
-93,
-525,
-81,
-311,
-1738,
-1762,
-28,
-634,
-390,
-198,
428,
-156,
-235,
-822,
702,
-332,
-125,
1034,
414,
-391,
547,
2321,
802,
-1632,
124;
