ffda
ffa7
002d
fff7
ffff
ffdc
ffc7
000c
ffe3
ffe1
ffe6
0019
ffd2
fff3
ffff
ffe0
fff1
fffb
fff8
001a
ffe6
0005
fff1
ffea
0010
ff7a
0016
000c
0006
000a
000c
0004
ffef
003a
fff4
fff9
fffe
002f
fff7
ffc3
ffe1
fffc
ffcf
ffc0
002b
fff5
fffe
fff1
000c
0019
0007
0006
fffa
0049
ffda
001c
fff2
ffd8
ffc8
ff6b
ffbf
0020
fff9
fffb
