0000
0000
0000
0000
0000
0000
0000
0000
0000
0000
0000
0000
0000
0000
0000
0000
0000
0000
0000
0000
0000
0000
0000
0000
0000
0000
0000
0000
0000
0000
0000
0000
0000
0000
0000
0000
0000
0000
0000
0000
0000
0000
0000
0000
0000
0000
0000
0000
0000
0000
0000
0000
0000
0000
0000
0000
0000
0000
0000
0000
0000
0000
0000
0000
0000
0000
0000
0000
0000
0000
0000
0000
0000
0000
0000
0000
0000
0000
0000
0000
0000
0000
0000
0000
0000
0000
0000
0000
0000
0000
0000
0000
0000
0000
0000
0000
0000
0000
0000
0000
0000
0000
0000
0000
0000
0000
0000
0000
0000
0000
0000
0000
0000
0000
0000
0000
0000
0000
0000
0000
0000
0000
0000
0000
0000
0000
0000
0000
0000
0000
0000
0000
0000
0000
0000
0000
0000
0000
0000
0000
0000
0000
0000
0000
0000
0000
0000
0000
0000
0000
0000
0000
0000
0000
0000
0000
0000
0000
0000
0000
0000
0000
0000
0000
0000
0000
0000
0000
0000
0000
0000
0000
0000
0000
0000
0000
0000
0000
0000
0000
0000
0000
0000
0000
0000
0000
0000
0000
0000
0000
0000
0000
0000
0000
0000
0000
0000
0000
0000
0000
0000
0000
0000
0000
0000
0000
0000
0000
0000
0000
0000
0000
0000
0000
0000
0000
fff2
fffc
0026
0013
ffb8
0001
0000
ff80
0019
0000
0000
0000
0000
0000
0000
0000
ff90
ffa8
0047
ffb1
ffba
0002
0000
0000
ffe0
0057
fff7
ffb0
ffba
0002
0000
0000
ffe8
fffe
ff86
ffbb
fffc
007f
0000
0000
ff90
0036
ffe0
ffb0
ffba
0002
0000
0000
0002
0000
0000
0000
0003
0000
0000
0000
0060
ffd5
ff83
ffbb
fffc
007f
0000
0000
0030
ffa5
0032
0065
ffb8
0002
0000
0000
0020
fff5
ff83
ffbb
fffc
007f
0000
0000
ffc0
ffe6
ffbe
0059
ffb9
0002
0000
0000
fff0
ff8f
0013
000d
ffb8
0002
0000
0000
ffd0
ff8e
0013
000d
ffb8
0002
0000
0000
0050
0077
007e
ff98
ffec
0000
0000
0000
0000
0000
0000
0000
0000
0000
0000
0000
ffe8
0074
007e
ff98
ffec
0000
0000
0000
006a
0022
0013
ffbb
fffc
007f
0000
0000
ffd0
0076
006b
ffab
fffc
007f
0000
0000
0000
0000
0000
0000
0000
0000
0000
0000
0000
0000
0000
0000
0000
0000
0000
0000
005a
ff87
0011
ffbb
fffc
007f
0000
0000
0060
ffd5
ff83
ffbb
fffc
007f
0000
0000
0000
0000
0000
0000
0000
0000
0000
0000
0020
fff5
ff83
ffbb
fffc
007f
0000
0000
001a
fff9
0012
ffbb
fffc
007f
0000
0000
0000
ffdb
ffe1
ffb3
fffc
007f
0000
0000
0000
0000
0000
0000
0000
0000
0000
0000
0068
0074
007e
ff98
ffec
0000
0000
0000
004a
ff87
0011
ffbb
fffc
007f
0000
0000
ff93
ffe0
fff1
ffb0
fffc
007f
0000
0000
0000
0000
0000
0000
0000
0000
0000
0000
0000
0000
0000
0000
0000
0000
0000
0000
0062
0022
0013
ffbb
fffc
007f
0000
0000
ff90
005c
0026
ffb1
fffc
007f
0000
0000
0000
0000
0000
0000
0000
0000
0000
0000
0000
0000
0000
0000
0000
0000
0000
0000
0042
ff87
0011
ffbb
fffc
007f
0000
0000
0068
ffa8
0047
ffb1
ffba
0002
0000
0000
0005
0000
0000
0000
0000
0000
0000
0000
0074
0066
002e
0043
006f
006e
0076
0033
0044
0042
0061
0063
006b
0070
0072
006f
0070
0046
0069
006c
0074
0065
0072
0056
0032
0000
ff94
000f
ffb8
0002
0000
0000
ffc0
ff89
ff94
000f
ffb8
0002
0000
0000
ffec
fffc
000c
0013
ffb8
0002
0000
ff80
0018
0000
0000
0000
0000
0000
0000
0000
ffb0
006c
0047
ffb1
ffba
0002
0000
0000
ffe0
0057
fff7
ffb0
ffba
0002
0000
0000
0008
0002
ff87
ffbb
fffc
007f
0000
0000
fff0
0037
ffe0
ffb0
ffba
0002
0000
0000
0003
0000
0000
0000
0003
0000
0000
0000
0060
ffd5
ff83
ffbb
fffc
007f
0000
0000
ffb0
ffa3
0032
0065
ffb8
0002
0000
0000
0020
fff5
ff83
ffbb
fffc
007f
0000
0000
0000
ffe5
ffbe
0059
ffb9
0002
0000
0000
0028
fff5
ff83
ffbb
fffc
007f
0000
0000
fff0
ffa3
0032
0065
ffb8
0002
0000
0000
0060
ff9e
0032
0065
ffb8
0002
0000
0000
0000
0000
0000
0000
0000
0000
0000
0000
ff93
ffe0
fff1
ffb0
fffc
007f
0000
0000
006a
0024
0013
ffbb
fffc
007f
0000
0000
ffd0
0076
006b
ffab
fffc
007f
0000
0000
0000
0000
0000
0000
0000
0000
0000
0000
ff90
0047
0026
ffb1
fffc
007f
0000
0000
005a
ff87
0011
ffbb
fffc
007f
0000
0000
ffb0
003f
000a
ffb2
fffc
007f
0000
0000
0000
0000
0000
0000
0000
0000
0000
0000
0050
0077
007e
ff98
ffec
0000
0000
0000
001a
fffa
0012
ffbb
fffc
007f
0000
0000
0000
ffdb
ffe1
ffb3
fffc
007f
0000
0000
0060
ffd5
ff83
ffbb
fffc
007f
0000
0000
ffa0
ffa3
0032
0065
ffb8
0002
0000
0000
004a
ff87
0011
ffbb
fffc
007f
0000
0000
0000
0000
0000
0000
0000
0000
0000
0000
0000
0000
0000
0000
0000
0000
0000
0000
ffd0
0076
006b
ffab
fffc
007f
0000
0000
0062
0024
0013
ffbb
fffc
007f
0000
0000
0030
0048
0026
ffb1
fffc
007f
0000
0000
0008
0075
007e
ff98
ffec
0000
0000
0000
0000
ffdb
ffe1
ffb3
fffc
007f
0000
0000
0042
ff87
0011
ffbb
fffc
007f
0000
0000
ffa8
006c
0047
ffb1
ffba
0002
0000
0000
0001
0000
0000
0000
0000
0000
0000
0000
0074
0066
002e
0042
0072
006f
0061
0064
0063
0061
0073
0074
0047
0072
0061
0064
0069
0065
006e
0074
0041
0072
0067
0073
0000
ffdc
ff8e
000f
ffb8
0002
0000
0000
0050
ffd6
ff8e
000f
ffb8
0002
0000
0000
0006
fffc
007a
0013
ffb8
0003
0000
ff80
0018
0000
0000
0000
0000
0000
0000
0000
0020
0039
ffe0
ffb0
ffba
0002
0000
0000
0000
0000
0000
0000
0000
0000
0000
0000
0000
0000
0000
0000
0000
0000
0000
0000
ffff
ffff
ffff
ffff
ffff
ffff
ffff
ffff
0000
0000
0000
0000
0000
0000
0000
0000
0000
0000
0000
0000
0000
0000
0000
0000
0000
0000
0000
ff80
0001
0000
0000
0000
0000
0000
0000
0000
0000
0000
0000
0000
0000
0000
0000
0000
0000
0000
0000
0000
0000
0000
0000
0000
0000
0000
0000
0000
0000
0000
0000
0000
0000
0000
0000
0000
0000
0000
0000
0000
0000
0000
0000
0000
0000
0000
0000
0000
0000
0000
0000
0000
0000
0000
0000
0000
0000
0000
0000
0000
0000
0000
0000
0000
0000
0000
0000
0000
0000
0000
0000
0000
0000
0000
0000
0000
0000
0000
0000
0000
0000
0000
0000
0000
0000
0000
0000
0000
0000
0000
0000
0000
0000
0000
0000
0000
0000
0000
0000
0000
0000
0000
0000
0000
0000
0000
0000
0000
0000
0000
0000
0000
0000
0000
0000
0000
0000
0000
0000
0000
0000
0000
0000
0000
0000
0000
0000
0000
0000
0000
0000
0000
0000
0000
0000
0000
0000
0000
0000
0000
0000
0000
0000
0000
0000
0000
0000
0000
0000
0000
0000
0000
0000
0000
0000
0000
0000
0000
0000
0000
0000
0000
0000
0000
0000
0000
0000
0000
0000
0000
0000
0000
0000
0000
0000
0000
0000
0000
0000
0000
0000
0000
0000
0000
0000
0000
0000
0000
0000
0000
0000
0000
0000
0000
0000
0000
0000
0000
0000
0000
0000
0000
0000
0000
0000
0000
0000
0000
0000
0000
0000
0000
0000
0000
0000
0000
0000
0000
0000
0000
0000
0000
0000
0000
0000
0000
0000
0000
0000
0000
0000
0000
0000
0000
0000
0000
0000
0000
0000
0000
0000
0000
0000
0000
0000
0000
0000
0000
0000
0000
0000
0000
0000
0000
0000
0000
0000
0000
0000
0000
0000
0000
0000
0000
0000
0000
0000
0000
0000
0000
0000
0000
0000
0000
0000
0000
0030
002f
ff8f
000f
ffb8
0002
0000
0000
0030
fffc
0060
0013
ffb8
0004
0000
ff80
0018
0000
0000
0000
0000
0000
0000
0000
ff80
003a
ffe0
ffb0
ffba
0002
0000
0000
0000
0000
0000
0000
0000
0000
0000
0000
0000
0000
0000
0000
0000
0000
0000
0000
ffff
ffff
ffff
ffff
ffff
ffff
ffff
ffff
0000
0000
0000
0000
0000
0000
0000
0000
0000
0000
0000
0000
0000
0000
0000
0000
0000
0000
0000
ff80
0001
0000
0000
0000
0000
0000
0000
0000
0000
0000
0000
0000
0000
0000
0000
0000
0000
0000
0000
0000
0000
0000
0000
0000
0000
0000
0000
0000
0000
0000
0000
0000
0000
0000
0000
0000
0000
0000
0000
0000
0000
0000
0000
0000
0000
0000
0000
0000
0000
0000
0000
0000
0000
0000
0000
0000
0000
0000
0000
0000
0000
0000
0000
0000
0000
0000
0000
0000
0000
0000
0000
0000
0000
0000
0000
0000
0000
0000
0000
0000
0000
0000
0000
0000
0000
0000
0000
0000
0000
0000
0000
0000
0000
0000
0000
0000
0000
0000
0000
0000
0000
0000
0000
0000
0000
0000
0000
0000
0000
0000
0000
0000
0000
0000
0000
0000
0000
0000
0000
0000
0000
0000
0000
0000
0000
0000
0000
0000
0000
0000
0000
0000
0000
0000
0000
0000
0000
0000
0000
0000
0000
0000
0000
0000
0000
0000
0000
0000
0000
0000
0000
0000
0000
0000
0000
0000
0000
0000
0000
0000
0000
0000
0000
0000
0000
0000
0000
0000
0000
0000
0000
0000
0000
0000
0000
0000
0000
0000
0000
0000
0000
0000
0000
0000
0000
0000
0000
0000
0000
0000
0000
0000
0000
0000
0000
0000
0000
0000
0000
0000
0000
0000
0000
0000
0000
0000
0000
0000
0000
0000
0000
0000
0000
0000
0000
0000
0000
0000
0000
0000
0000
0000
0000
0000
0000
0000
0000
0000
0000
0000
0000
0000
0000
0000
0000
0000
0000
0000
0000
0000
0000
0000
0000
0000
0000
0000
0000
0000
0000
0000
0000
0000
0000
0000
0000
0000
0000
0000
0000
0000
0000
0000
0000
0000
0000
0000
0000
0000
0000
0000
0000
0000
0000
0000
0000
0000
0070
ffc2
ff8e
000f
ffb8
0002
0000
0000
002a
fffc
004e
0013
ffb8
0005
0000
ff80
001a
0000
0000
0000
0000
0000
0000
0000
ffc0
ffa5
0047
ffb1
ffba
0002
0000
0000
ffe0
0057
fff7
ffb0
ffba
0002
0000
0000
0058
0002
ff87
ffbb
fffc
007f
0000
0000
0010
003c
ffe0
ffb0
ffba
0002
0000
0000
0000
0000
0000
0000
0003
0000
0000
0000
ff90
ffc3
ff8e
000f
ffb8
0002
0000
0000
ffc0
ffc3
ff8e
000f
ffb8
0002
0000
0000
ffb0
ffca
ff8e
000f
ffb8
0002
0000
0000
ff90
ffd2
ff8e
000f
ffb8
0002
0000
0000
0000
ffd5
ff8e
000f
ffb8
0002
0000
0000
ffd0
ffd1
ff8e
000f
ffb8
0002
0000
0000
0000
0000
0000
0000
0000
0000
0000
0000
0050
0077
007e
ff98
ffec
0000
0000
0000
0000
0000
0000
0000
0000
0000
0000
0000
ffea
0022
0013
ffbb
fffc
007f
0000
0000
ffd0
0076
006b
ffab
fffc
007f
0000
0000
0070
007b
002b
ffb1
fffc
007f
0000
0000
0000
0000
0000
0000
0000
0000
0000
0000
005a
ff87
0011
ffbb
fffc
007f
0000
0000
0000
0000
0000
0000
0000
0000
0000
0000
0060
ffd5
ff83
ffbb
fffc
007f
0000
0000
ffb0
ffa3
0032
0065
ffb8
0002
0000
0000
005a
fff9
0012
ffbb
fffc
007f
0000
0000
0000
ffdb
ffe1
ffb3
fffc
007f
0000
0000
0000
ffdb
ffe1
ffb3
fffc
007f
0000
0000
0000
0000
0000
0000
0000
0000
0000
0000
004a
ff87
0011
ffbb
fffc
007f
0000
0000
0000
0000
0000
0000
0000
0000
0000
0000
ff93
ffe0
fff1
ffb0
fffc
007f
0000
0000
0000
0000
0000
0000
0000
0000
0000
0000
ffe2
0022
0013
ffbb
fffc
007f
0000
0000
ff80
0057
0026
ffb1
fffc
007f
0000
0000
0040
0056
0026
ffb1
fffc
007f
0000
0000
0000
0000
0000
0000
0000
0000
0000
0000
0042
ff87
0011
ffbb
fffc
007f
0000
0000
ffc0
ffa4
0047
ffb1
ffba
0002
0000
0000
0005
0000
0000
0000
0000
0000
0000
0000
0074
0066
002e
0043
006f
006e
0066
0069
0067
0075
0072
0065
0044
0069
0073
0074
0072
0069
0062
0075
0074
0065
0064
0054
0050
0055
0000
0065
ffb8
0002
0000
0000
ffe0
ffe2
ff9c
0065
ffb8
0002
0000
0000
0044
fffc
ffb4
0013
ffb8
0006
0000
ff80
0018
0000
0000
0000
0000
0000
0000
0000
0008
ffa9
0047
ffb1
ffba
0002
0000
0000
ffe0
0057
fff7
ffb0
ffba
0002
0000
0000
fff0
fffe
ff86
ffbb
fffc
007f
0000
0000
0070
003d
ffe0
ffb0
ffba
0002
0000
0000
0002
0000
0000
0000
0003
0000
0000
0000
0060
ffd5
ff83
ffbb
fffc
007f
0000
0000
0020
ffa6
0032
0065
ffb8
0002
0000
0000
0020
fff5
ff83
ffbb
fffc
007f
0000
0000
ffc0
ffe8
ffbe
0059
ffb9
0002
0000
0000
0040
fff2
ff9c
0065
ffb8
0002
0000
0000
ffa0
ffef
ff9c
0065
ffb8
0002
0000
0000
0050
0077
007e
ff98
ffec
0000
0000
0000
0000
0000
0000
0000
0000
0000
0000
0000
ffe8
0074
007e
ff98
ffec
0000
0000
0000
005a
0022
0013
ffbb
fffc
007f
0000
0000
ffd0
0076
006b
ffab
fffc
007f
0000
0000
0000
0000
0000
0000
0000
0000
0000
0000
0000
0000
0000
0000
0000
0000
0000
0000
005a
ff87
0011
ffbb
fffc
007f
0000
0000
0060
ffd5
ff83
ffbb
fffc
007f
0000
0000
0000
0000
0000
0000
0000
0000
0000
0000
0020
fff5
ff83
ffbb
fffc
007f
0000
0000
0012
fff9
0012
ffbb
fffc
007f
0000
0000
0000
ffdb
ffe1
ffb3
fffc
007f
0000
0000
0000
0000
0000
0000
0000
0000
0000
0000
0068
0074
007e
ff98
ffec
0000
0000
0000
004a
ff87
0011
ffbb
fffc
007f
0000
0000
ff93
ffe0
fff1
ffb0
fffc
007f
0000
0000
0000
0000
0000
0000
0000
0000
0000
0000
0000
0000
0000
0000
0000
0000
0000
0000
0052
0022
0013
ffbb
fffc
007f
0000
0000
0030
005d
0026
ffb1
fffc
007f
0000
0000
0000
0000
0000
0000
0000
0000
0000
0000
0000
0000
0000
0000
0000
0000
0000
0000
0042
ff87
0011
ffbb
fffc
007f
0000
0000
ffc0
ffa8
0047
ffb1
ffba
0002
0000
0000
0006
0000
0000
0000
0000
0000
0000
0000
0074
0066
002e
0043
006f
006e
0076
0033
0044
0042
0061
0063
006b
0070
0072
006f
0070
0049
006e
0070
0075
0074
0056
0032
0000
fff1
ff9c
0065
ffb8
0002
0000
0000
fff0
ffea
ff9c
0065
ffb8
0002
0000
0000
007e
fffc
ffa2
0013
ffb8
0007
0000
ff80
0018
0000
0000
0000
0000
0000
0000
0000
ffa0
003e
ffe0
ffb0
ffba
0002
0000
0000
0000
0000
0000
0000
0000
0000
0000
0000
0000
0000
0000
0000
0000
0000
0000
0000
0000
0000
0000
0000
0000
0000
0000
0000
ffff
ffff
ffff
ffff
ffff
ffff
ffff
ffff
0000
0000
0000
0000
0000
0000
0000
0000
0000
0000
0000
ff80
0000
0000
0000
0000
0000
0000
0000
0000
0000
0000
0000
0000
0000
0000
0000
0000
0000
0000
0000
0000
0000
0000
0000
0000
0000
0000
0000
0000
0000
0000
0000
0000
0000
0000
0000
0000
0000
0000
0000
0000
0000
0000
0000
0000
0000
0000
0000
0000
0000
0000
0000
0000
0000
0000
0000
0000
0000
0000
0000
0000
0000
0000
0000
0000
0000
0000
0000
0000
0000
0000
0000
0000
0000
0000
0000
0000
0000
0000
0000
0000
0000
0000
0000
0000
0000
0000
0000
0000
0000
0000
0000
0000
0000
0000
0000
0000
0000
0000
0000
0000
0000
0000
0000
0000
0000
0000
0000
0000
0000
0000
0000
0000
0000
0000
0000
0000
0000
0000
0000
0000
0000
0000
0000
0000
0000
0000
0000
0000
0000
0000
0000
0000
0000
0000
0000
0000
0000
0000
0000
0000
0000
0000
0000
0000
0000
0000
0000
0000
0000
0000
0000
0000
0000
0000
0000
0000
0000
0000
0000
0000
0000
0000
0000
0000
0000
0000
0000
0000
0000
0000
0000
0000
0000
0000
0000
0000
0000
0000
0000
0000
0000
0000
0000
0000
0000
0000
0000
0000
0000
0000
0000
0000
0000
0000
0000
0000
0000
0000
0000
0000
0000
0000
0000
0000
0000
0000
0000
0000
0000
0000
0000
0000
0000
0000
0000
0000
0000
0000
0000
0000
0000
0000
0000
0000
0000
0000
0000
0000
0000
0000
0000
0000
0000
0000
0000
0000
0000
0000
0000
0000
0000
0000
0000
0000
0000
0000
0000
0000
0000
0000
0000
0000
0000
0000
0000
0000
0000
0000
0000
0000
0000
0000
0000
0000
0000
0000
0000
0000
0000
0000
0000
0000
0000
0000
0000
0000
0001
ff97
003a
0014
ffba
0002
0000
0000
0068
fffc
ff88
0013
ffba
0008
0000
ff80
001a
0000
0000
0000
0000
0000
0000
0000
fff0
ffa9
0047
ffb1
ffba
0002
0000
0000
ffe0
0057
fff7
ffb0
ffba
0002
0000
0000
0070
0002
ff87
ffbb
fffc
007f
0000
0000
0030
0040
ffe0
ffb0
ffba
0002
0000
0000
0001
0000
0000
0000
0003
0000
0000
0000
0060
ffd5
ff83
ffbb
fffc
007f
0000
0000
0060
ffa6
0032
0065
ffb8
0002
0000
0000