005c
ffd2
ffb9
ffb9
004b
0079
002e
ffd6
003f
001d
001d
0000
0008
001d
ffd6
0075
0047
ff2a
fef8
ffe3
00ac
001d
0021
ff05
007e
003b
ffc1
0104
0026
fedb
00b0
0036
ff37
ff59
00f7
ff37
0079
fffc
fff8
0064
0000
0008
00c9
0032
fe5d
ffac
000d
0011
ff97
0036
0043
fff8
0054
ff26
ff8b
008e
ff7a
0079
fff3
0019
fef0
ffa0
00da
0047
0043
ff65
ffd2
0021
001d
ffb5
0032
002e
ffa0
002a
00a7
fdec
0026
0086
ffda
ffb5
003f
000d
ff97
0019
0047
ff9c
0069
0015
0032
ff59
0011
ff9c
002a
fffc
003f
ff1a
ff33
00b4
0015
ff8f
fff3
00ac
0054
ffe7
0015
0069
003b
ff9c
002e
0064
ff69
ffc1
ffeb
00c5
fffc
ffe3
0008
00de
ff6d
0064
fff3
fff8
0000
0054
0058
ffd6
ff61
003f
008e
ffeb
0032
0060
0026
ff59
006d
006d
ffce
ffac
0054
ffce
fff8
002a
ffce
0015
002a
ffb0
0004
003f
0032
ff82
0043
ffce
fff8
ffca
ffe3
003b
fffc
003f
0000
0071
ff37
009f
ff16
ffc5
0082
0082
003f
ff37
fe90
0043
0082
ff44
ffda
00b0
ff76
ffef
0071
00e2
fedf
0054
0069
fffc
ff1e
ffeb
ffb0
003b
ff72
ffe3
008e
008e
0036
ff44
