002e
0026
ffdc
0036
002c
007e
0008
ffdf
000d
0052
ffeb
002c
0036
000f
003b
ffee
004a
003b
001f
0024
0012
005c
001c
0012
ffcd
ffe9
003b
ffeb
002e
0033
0036
001a
001f
002c
ffe1
ffcf
ffc5
ffeb
001a
ffd4
0005
fff3
ffb6
0048
ffc8
fff3
004a
001a
0008
ffe1
fff8
0015
0050
0015
ffe4
ffc5
ffdc
0050
ffe6
0033
0012
0033
002c
000d
0003
0005
ff75
ffeb
ff59
ff66
fffd
fffb
ffbd
ffdc
ffc2
ffe1
feba
ff94
0061
ffd7
ffc0
fedc
ffe9
ffe9
000d
fffb
ffc8
ffe6
ff99
0036
ff4c
001c
fff3
ffe4
ffe1
004a
0023
0026
ffeb
ffae
0014
ff5a
0035
ff58
0040
ffc1
ffb4
0033
0038
fff8
ffe9
001c
002b
ffd5
0035
fff8
ff98
0002
007b
ffb1
ff97
0023
ffee
001c
000f
0029
004f
002c
0007
0010
0000
fff8
0023
ff89
000d
ff7b
0015
ffd4
ff6f
005b
0047
ffa9
ffcf
ffdd
0029
0007
fffb
0028
ffb8
0031
004c
ffdd
ffd5
0015
001a
ffd7
ffe6
0030
004f
000c
0043
fff6
ffe9
ffdd
008f
ff97
fffb
ff5f
ffb6
001f
ff74
0047
0056
ffd0
ff39
000a
001f
0014
001a
005b
ff2f
0047
0005
ffe7
ff3c
0019
0033
0040
0008
0003
0024
fff4
0009
fff5
0019
0015
003c
0037
0015
002c
ffa0
fffe
ffcd
ffab
ffb6
0032
ffc7
000b
0020
ff1f
fff4
0013
0040
ffcb
fffc
0025
0030
fff9
ff94
fff4
fff2
000b
0012
000e
fffb
0009
ffe9
ffee
0027
002c
0025
fffc
ffb4
004a
ffce
ffe5
ffad
000b
000b
0004
0025
fff0
ffe2
000c
ffe7
ffc0
ffe7
0017
fff5
000e
ffc4
0013
0022
0000
fff4
ffeb
0029
fffc
fff0
ffde
0015
0000
0007
ffc9
ffe7
0047
ff5d
0037
ffad
0005
ffee
fff5
0032
ffc4
001c
0030
fff5
fff5
0002
ffd2
0010
0035
ffd2
002c
001c
fffe
ffcd
0037
ffff
000e
ffe0
0006
ffe7
0004
fff9
fff2
ffd7
ffdb
001f
ffe6
fffa
fff9
fffb
0022
fff4
0013
0015
ffe8
0017
0001
ffe3
ffde
ffea
ffdb
fffc
000a
ffde
0011
ffdd
0019
ffe1
fffa
ffd9
ffdf
000a
ffdf
ffcd
fff2
0023
fffb
ffea
fff7
0001
0013
fff8
ffcd
0008
fff7
fffd
ffea
fff2
0004
fff2
ffdf
0016
ffe0
ffff
0001
ffe3
0002
ffd7
0014
ffdf
ffe6
ffe6
ffd7
0027
ffd4
0010
0019
0027
ffe6
ffd7
000f
ffef
0009
ffe4
ffd7
ffd5
0015
0001
ffef
ffe6
ffec
0010
ffe2
001a
fffb
0018
ffe7
000d
fffa
0011
0008
ffd3
ffbd
0039
0028
ffff
0020
ffd8
000f
0027
0030
fffc
0040
ffee
ffcf
ff72
ffee
ffef
ffe8
0048
0028
ffdd
0042
fffc
0025
fff2
ffe9
001a
0003
002d
ffe1
fffc
ff89
ffcb
ffdd
0049
000d
fffb
002d
000d
ffe0
0028
ffe5
ffff
000d
ffea
ffd9
ff7e
fff7
ffd7
ff76
ffed
001c
ffb1
000f
0016
fff4
fff8
fffd
000d
ffd3
0025
ffc1
0011
fff1
ffbe
ffca
0027
0000
ff88
003b
0024
fff8
0013
ffcb
fff8
ffd5
ffdc
0015
ff5c
fff3
ffca
ffa4
ff92
ffe5
ff61
ffe6
001a
ffd5
ffe1
003d
ffca
ffe4
000f
ff91
0051
ffeb
001e
0056
001a
0034
0022
ffb2
0022
ffe6
0041
001e
ffc8
ffef
004e
ff54
0081
0041
0049
005f
0004
001a
00ac
0022
005f
002b
001e
0009
0011
0004
ffd5
fff7
007d
0045
fffc
ffd9
ffc4
0004
0000
0052
0016
0009
0049
002f
0022
fffc
ffef
ff42
006c
0027
ffea
0011
fff3
0038
00ac
0011
0056
0038
0000
ffd9
0009
ffae
ffe2
ffd1
006c
ffde
ff13
fed2
ff20
ffc4
ff17
009b
ff83
001e
0045
0004
0056
ff99
ff7f
ff87
00f6
ffc8
ff3e
feb0
fe1d
ff58
0125
ff72
0011
ffaa
ffde
ff7a
ff87
fddd
fff3
ff06
003c
ff9d
001f
0018
000e
ffef
ffd4
ff6a
0003
ff8f
ffe1
ffcd
ff6d
000e
000e
ffbc
0055
003a
0003
ff93
0018
ffc9
0067
fff2
0048
ffd0
ff99
0055
fffd
ffde
ff58
0015
0071
007b
ff7e
ffc6
001b
0007
001b
ffb1
ffcd
ffab
ffb8
fff2
ffa0
fffd
000a
ff77
ffeb
0018
ffbf
ff93
feaa
ffc9
ffa0
000e
0022
ffd0
ff6d
0052
ffe5
fe96
ffb1
0022
fffd
006d
001b
0052
0063
fff9
004b
ff7e
ffbf
ff74
ffe1
ffe8
ff74
0048
0033
ff82
ff5f
ffd7
0078
0090
00ab
0026
fe4e
0029
ffa4
fff2
ff36
ffcd
0030
0063
ffc6
003a
ff44
ff88
002d
0031
0086
000b
fffe
0002
0015
ffeb
ffe0
fff8
0015
ffb8
fffc
fff1
001e
004c
002f
00aa
fffe
000f
fffe
0000
008e
fffc
fff3
002d
0035
0013
0020
0051
00b7
0026
fff8
ffb4
0059
ffb4
ff96
0064
fffa
0019
0013
ffe4
001e
0004
ffd3
0033
ffde
ffba
0031
005b
ff8b
ffcf
0077
ffd1
fffc
ffb1
001e
0017
0015
ffc0
002a
fff3
0031
002a
ff1f
feff
0064
ff69
ff5c
003e
0004
ffcb
fff3
ff67
0013
ffcb
ff9a
0042
001e
ff9a
fff3
ff9a
fefd
ff9a
0066
ffc0
0046
ffa7
ffe2
001c
ffc7
ff1b
ffde
fef2
0017
ffd6
ffc8
ff65
ffe7
0000
fff4
0057
ff62
fff0
0019
0009
ffd8
0047
000c
ff6e
feba
ffe4
ff8a
ff7e
ffcb
ffe4
ff43
0013
fe9e
fff0
ffc2
ffb2
001c
fff0
ffd8
0006
fe76
ff8d
ffd1
0028
0038
0019
005a
0057
ffc5
ffe7
002f
ffe4
ff8d
ffea
0028
ffe4
0073
0041
ffb2
001c
ffce
fff7
0076
001c
001c
fffd
ffea
000c
fff4
ffaf
0013
fff4
ffd5
ffe7
003e
0054
0060
0041
0079
0009
ffbf
ffbc
ff90
001f
ffac
0016
0032
ffa9
ffbc
0060
0025
0066
fff0
0063
ff58
0041
ffd8
004b
ffdb
001f
002f
0009
0032
fffd
ffed
0038
ff38
febb
002c
0057
00ce
0032
fea9
ffaf
ff89
0013
ff90
0070
001f
fff4
fdce
ff70
ff77
ff51
ff5e
ffe1
fddb
0064
fce7
fffa
000c
febb
0000
ff1f
ffaf
ff51
fddb
fe77
0006
ffd4
0070
0019
00a2
0051
ffaf
ffc8
ffa2
ffc8
ffc8
ffc2
fffa
002c
ffe7
0057
fffa
ffe1
0013
002c
ffc8
0038
fe32
000c
0025
0013
0000
0019
ffe7
0013
fee1
0006
005e
003e
00fa
0038
00fa
0077
ff90
ffc8
ff2c
0013
fff4
ff1f
ff5e
fff4
ff38
ff83
0032
ffa2
004b
0083
fee7
ff64
fe06
0019
ff83
0064
ffc2
0032
005e
0025
fe38
0057
0013
0050
0010
0046
000d
0026
0003
000a
0033
005c
0006
0003
002d
ff67
0079
0039
0029
0030
0010
0010
0056
0010
0043
000a
fffd
0059
fff6
0043
0013
002d
008c
0050
0029
0030
ff34
ffea
ff54
ffe0
ffdd
0003
0033
003d
003d
ffcd
ffcd
ff5d
007f
fff3
ffed
ffda
fff6
ffed
0066
fff0
0006
0010
ffed
0013
ffaa
ffe0
fff0
0019
fffd
0046
0016
ffd0
fea8
ff8d
fe6b
0016
ffc7
0019
fffd
ffbd
0059
ff11
feee
ff5d
0096
ffd7
ffa7
fed1
fffd
ffba
009c
ff57
000a
ffd7
0006
fff6
ff14
ffea
ffd7
ffc7
ffca
0020
000e
ffc3
ff57
0058
000e
0051
ff57
003d
007a
0051
003d
0007
ffec
ff8d
ffd7
ffc3
001b
000e
ffe5
0058
ffd1
000e
ff2e
003d
003d
fe47
002f
ffd1
006c
fff9
ff35
fe84
ffd7
000e
ffd7
ffd1
ff78
001b
ff35
ffd7
0000
0022
0022
fe77
0000
0007
fca3
fe9f
000e
fff2
ffd7
000e
fd38
ff3b
ff64
ffaf
fff2
ffec
ffde
fff9
0029
ff78
ff72
ffaf
0000
ffbc
ffec
fe99
ff7f
ffec
0000
fe9f
ff7f
fe7e
ffca
ff49
ffd7
fff9
ffa8
fee3
0014
0007
ffd1
ffd7
ff6b
ff5d
ffca
fe04
ff94
ffe5
ffca
fff9
fff2
ffa8
ffb5
ffa1
000b
fff9
fff2
0032
0048
005a
0022
ffd3
0024
005f
ffd1
002f
0039
0002
001d
fff2
0039
0014
0009
003d
ffc3
0048
0007
0019
fff7
ffde
0036
0020
0012
ffe7
0026
0005
0009
002b
ffec
ffde
0000
0019
0014
ffcc
001b
002b
ffbc
0019
ff9f
0000
0085
0000
fff9
ffba
002b
ffec
0058
0036
0000
ffd1
ffe7
0019
0017
0019
000b
0034
0022
0000
003b
0024
ffe9
ff96
ff93
ffb5
0009
ffd7
ffca
fff7
ffa3
ffee
fee1
ffc5
0044
ffaf
0002
ff49
ffec
0000
0034
ff9f
ffe5
ffd1
ff81
0044
ff8f
0029
ffe5
ffe0
ffca
0058
0015
0008
ffd1
0034
0004
003c
0027
ffed
0067
003c
ffdf
0019
0004
0000
0004
ffe1
002f
fffe
ffeb
0036
000e
0027
001f
fff2
ffb4
001b
001d
000c
0029
001b
0011
0031
ffef
0023
ffe3
000e
fff6
ffe3
0002
ffef
001b
ffe3
ffb0
0010
ff57
ffdf
005d
ffd7
0008
ff09
0025
fffc
002b
0008
0008
ffcc
ffc4
0021
ffba
fffa
0015
0017
fffa
0010
000a
0033
ffd1
ffd3
fff8
ff99
fff8
0006
0000
0006
ff8f
0034
ff3a
ffe1
0038
ffdb
fff2
ffa7
fffc
0000
0013
ffe9
ffc0
000a
ffca
0044
ff61
0000
0002
0011
ffba
0044
ff58
feb5
004f
fffa
006b
ffd3
fe9e
ff9b
ff41
ffa6
ff95
ffe4
ffd9
fff5
fe3f
ff52
ff68
ff74
ff58
ff95
fe18
ffea
fd37
ffd3
fff5
fef8
ffcd
ff47
ff74
fefe
fdad
fe50
001c
ffd3
0076
ffbd
007b
0000
ffbd
ffd9
ffe4
ffd9
ffa6
0011
0011
002d
ff68
0054
000b
fff5
0027
ffef
ff74
fffa
fec0
0022
0070
0011
ffde
0022
ffd3
ffc8
fe7d
ffde
005f
0022
00d5
007b
00ec
008c
ff4c
005f
ff30
0033
ffd3
002d
0011
ffd9
ff2b
002d
006b
0022
005f
007b
fefe
0033
fe77
0076
ffa6
0076
005a
0054
004f
0006
fe66
006b
ffc4
ffdc
ffbb
000f
ffd3
0018
0003
ffdf
0012
ffeb
000f
fe82
ff24
ffc1
ff91
0015
0006
ff57
ffe2
000c
ffb2
fff1
003c
ffd6
ffbb
001e
ffdc
ffe5
0015
ffd3
0048
0018
ffca
0015
002a
ffeb
ffe2
ffcd
001e
ffe5
fff4
ff4e
ffe2
ffac
0003
fff4
ffd6
ffeb
002a
0030
0012
0015
0000
ff70
0036
ffd9
0012
ffe5
0003
000c
fff1
fffa
0027
ffcd
000c
0024
0042
0000
004e
001b
ffe5
0000
ffd0
fff1
0006
ffdc
0021
fffa
ffe5
0015
0027
fffa
0042
0015
ffdc
ffc1
0042
fffa
ffe2
ffdc
003f
0015
0042
0006
003f
ffdf
0045
005e
0004
003d
0014
ffdf
0041
0010
0029
0039
fff0
0021
0014
fff4
fff4
0029
003d
003d
008b
0021
fff8
002d
0039
0025
ffd7
0056
0004
0045
0031
0021
0014
0029
0008
fffc
fffc
0008
0029
fff8
ffe3
001d
0004
003d
0019
002d
0004
ffdf
ff5c
ffdf
ffdf
ffd3
ff0f
0031
ff9e
000c
003d
0014
ffd3
004e
0029
ff13
0004
0029
005a
0045
fff0
ffc3
ff3c
0014
ffdf
0004
ffe3
0000
0010
0019
0021
0000
ffd3
0031
fe2a
ffe3
ffd7
006a
0000
0025
fdf9
0035
ff34
0025
000c
ff8e
ffc7
ffbf
ffc7
0041
ff81
ff69
0060
004c
0071
0002
ffe5
0028
005d
ffd3
0012
fffe
0021
ffbd
002a
001d
000d
002f
0059
008a
0026
0026
0038
ffc4
004c
0018
ffd8
0049
0033
001b
0059
003e
0050
001b
000b
0049
003e
ffd1
ffe1
0049
003c
fff9
fff9
ffbf
fffc
ffcd
0002
003a
ffe8
ffd8
002a
0060
ffbf
ffda
ffdc
fff9
002f
ffb2
0016
0033
0026
ffe5
0035
0018
005b
fff5
ff62
fef1
0035
ffc2
ff93
0012
0010
ffae
000d
ffb0
0012
fffe
ffc8
001f
ff6f
ff8c
0026
fef1
ff24
ffab
ffcf
ffee
fff0
ffb0
ffdf
ffc8
ffcf
ff26
fff0
fee5
004e
ff9e
0045
0026
000a
ffe3
ffe9
ffca
0036
ffa8
0034
ff07
ffd0
ff61
001d
004b
0017
001b
005a
0066
0038
0002
0017
ff98
005e
ffdc
0021
0021
ffda
002c
0054
001d
005e
000a
fffc
0032
0073
ffb7
ffc8
ff87
0019
0015
ff35
ffdc
0017
000d
002e
0036
ffa4
0034
0000
0064
ffb5
ffd6
ffb1
0006
004d
0006
0004
0013
0056
0021
ffed
000d
004f
001b
ff81
ff3a
ffe1
ff8d
ff9e
0015
ffed
0024
fffe
fffc
002a
fff6
ff83
002c
ff21
ffa6
ffc6
fef7
ff4a
ff9a
ff6a
ffe1
ffef
ffce
0015
ffda
ffbb
ff89
ffdc
ff72
002e
ffeb
002a
ffe9
001f
0036
001b
0034
0013
0024
000b
fffa
0050
0036
0024
004d
000b
fffc
003d
0054
0015
000b
ffda
0028
ffcc
fff5
002e
fff8
0038
0008
ffe7
0013
ffe1
fff1
0034
0011
ffef
fff1
ffe9
0045
002e
ffef
0006
ffcc
001f
0011
000f
0066
006b
fff5
000a
ffd2
0032
002c
004f
ffd4
ffde
ffef
ffe9
0017
0000
fff8
000b
003b
0004
0011
0038
0030
ffb9
ff65
ff63
0002
fff5
0000
ffc5
ffc5
fffe
ffdf
ff0d
003f
0011
ff9e
ffd6
ffa6
0011
ffe1
0038
ffae
ffd8
ffc5
ffeb
004b
ffe3
0030
fff1
fff1
ffdf
0034
002a
003e
0038
ffe2
ffd1
fec6
0044
ffad
0003
ffdf
ff5a
000f
ffe8
ffdf
0015
003e
0024
fffd
0047
001e
ffdc
ffbf
0083
ffb9
ff83
0041
001b
0041
0027
0027
00d6
0050
0003
ffee
fff4
fffa
fff4
ffd6
ffeb
ff8f
ffe2
ffe8
febd
0032
ffe8
ffbc
ff83
ffcb
0021
ffc8
ffd3
001b
ff60
000f
001b
ffe5
ff69
fffa
fff4
fffa
002a
fff1
0009
0018
0009
001b
ffd1
0003
0041
ff80
ffb9
ff2d
ff3c
ffee
fe87
005f
0062
ffb0
ffad
0015
fffa
0027
fffd
0003
ffc5
0047
002a
ffdc
ff60
003b
0056
0015
ffc2
0000
ffe2
0038
001e
0057
007c
fff2
0007
0015
0032
0017
fff9
fff0
0032
ffde
0032
fff5
0010
0045
0009
0070
0029
0027
fff9
ffe9
0062
fff0
ffee
0015
003e
0035
001b
0042
0065
0025
ffd0
ffce
0017
ffb2
ff89
0057
0000
ffe0
0010
ffe0
001b
ffd0
ffe0
0025
ffe2
ffce
0035
001e
ffcb
ffdb
0049
ffd9
002e
ffc0
0000
000e
000b
ffd0
0030
fff5
001b
0005
ff64
ff1d
006e
ff89
ffab
0015
fffb
ffd7
ffdb
ffb2
fffe
fff2
ffc9
0022
001b
ffb9
fffe
ff5d
ff60
ffb4
0037
ffc2
0022
ffb7
ffc7
ffe9
ffa2
ff6d
fff0
fedd
003c
ffce
0012
fffe
ffdb
0039
0007
ffe7
0027
0032
0040
0001
001c
0023
001f
ffd1
ffcd
002a
000f
000b
fffc
fff0
ffaa
0003
0022
0009
fff9
0002
0022
0013
0030
000b
0049
ffff
0000
0011
ffee
ffff
ffe1
0000
fff9
0016
0037
0014
fff1
000b
ffdf
fff5
ff9b
002a
ffea
0013
fffa
ffd0
ff98
0019
0005
0004
0025
fffa
0022
ffe6
0006
ffe7
003a
ffe2
fff3
ffe6
ffeb
0001
ffe8
fff1
ffff
0033
0007
0018
0017
ffe5
000d
fff7
ffc5
0016
fff0
002b
0007
ffe2
ff7a
fff3
0028
000f
fff5
ffa1
fff5
fff5
0000
fffd
0003
ffcd
ffe3
fff8
ffb1
000d
ffc5
ffd6
fff3
ffd6
ffd6
fff3
ffe1
ff0d
ff8d
000a
ff5d
ffed
0015
ff0e
0008
ffe5
ffbf
ff65
0038
ffb5
fffa
000a
0019
0000
0030
ffe1
009d
000d
fffe
ffdf
0034
ffd6
fffc
ffb9
000a
001b
0028
ff3c
ffeb
ff40
0032
fff6
fff6
002a
000a
002c
ffe5
ffa4
000c
ff87
0032
ffdd
0017
ffeb
0017
000d
000f
000a
0043
ffda
ffda
ffd6
0056
ffcc
001f
fff4
ffda
001f
ff2d
ffd2
001f
fff8
fffe
0002
ff78
0004
0019
ffe5
ffc3
ffdd
ff8b
ffb9
003b
000c
fffa
0002
001f
ff9a
fff8
fff1
002e
fff6
ffe5
fff4
0024
fffb
ffb9
ffee
0040
0015
ffe6
ffb3
0000
ff3f
ffa7
0037
ffe2
0029
0026
0009
002c
0002
ffef
ff94
0061
ffd3
0023
001e
ffb6
0020
002c
fff7
006f
ffef
fff1
0002
0014
0027
ffc5
ffbf
0026
0011
000c
0024
0027
ffbc
ffb1
0034
ffe5
0037
fff1
ffd1
001e
fffe
ffaa
ffc0
004a
0021
002d
ffe5
ff9c
000c
fffa
ffd9
0038
ffc6
ffe6
001a
003e
0043
000e
ff87
003a
0017
0060
0035
0021
003d
0006
000e
fff8
0032
000e
fffa
0002
001b
ffa4
0000
0055
0046
0056
000f
ffda
ffe5
ffdf
0018
0050
ffe3
002b
001c
0062
ffe1
0034
ffc9
0047
ff6a
ffc6
ffc6
fef2
0009
003a
ff88
0031
0028
0053
fffd
0003
ffe7
fff7
0000
0065
ffd5
ff48
0044
0003
ffbc
ffb6
0034
005c
0072
ffdb
ffe4
fffa
ffe1
0009
ff95
fff4
ff73
ffcf
000c
fef5
0015
0019
ff10
ffd8
ffe1
ffc6
fff1
ff20
fffa
ff6d
001f
001c
fffd
ff57
003d
000c
fea8
ff42
001c
ffdb
0053
ff60
002b
0034
0006
0044
fedf
000f
ff3b
ffe4
0015
fec4
001f
005c
ffe4
004d
0034
0009
00af
ffeb
0003
ff6d
0040
ffe7
0006
ff45
ffc9
003d
ff8b
fe7a
001f
ffa1
ff9e
ffdd
ffdd
ffa8
ffcc
ffa4
ffbc
ffca
fff5
ff98
ffd3
0015
ffc9
0014
ffee
0012
0006
ff9c
004e
ffbe
ff7e
003e
ffca
ffe2
fff8
fff3
0012
ffd0
ffb4
ff9a
0068
0004
0007
ffae
ffe5
ffe9
ffef
002d
001e
0007
fff9
ffe2
fff8
001b
fff3
0034
0012
0042
000b
0019
0042
ffe4
0008
0038
ffcd
ffe9
0001
ffef
ff4d
0000
ff9a
001b
0008
ffcc
ff4e
0018
0007
001c
ffe0
0001
0052
0044
002d
ffa8
ffeb
001e
0020
fff3
0037
006e
0022
0010
0044
0040
ffde
0085
000a
0017
0008
0017
000d
0006
0020
fffd
000b
000e
fffa
001f
ffd1
ffb0
0054
0008
005e
005e
ffeb
0021
0050
ffc7
002d
002b
004e
ff41
ffb4
002b
ffa0
fffe
0004
ffc7
0023
ffeb
0023
ffd7
ffe9
fffe
fff2
0019
ffc9
0021
fffc
0017
0033
ffdb
0019
0012
000a
0048
ffd9
0021
fff0
ff95
002f
ff7f
0050
0046
ffe3
0002
ffa8
0012
0025
0012
ffd3
0039
ffdb
0017
0035
ffe1
0004
0031
0017
000e
0027
002b
001f
ffd5
ffc7
ffd9
ffcf
ffeb
fff2
0002
000e
ffa0
0058
fefc
fff0
fff8
ffd5
ffdd
ff68
fff8
001f
ff97
ffbc
000e
ffb0
ffcf
0025
ffb4
000a
0012
0000
0006
004a
0022
ffe1
0010
0047
002f
003b
0065
0003
0066
006b
ffec
0062
000c
005f
ff3b
ff63
0024
ff70
0005
001d
ff87
0032
ffa6
0010
000b
fffb
fff5
fff2
0047
ffc7
ffb1
002a
001a
0040
0016
ffe4
fffa
0021
0030
ffe7
0027
ffe1
ff82
0058
ff8a
001a
004e
0010
0014
ff9a
0014
0027
003d
ffb6
006d
0000
fff5
004c
ff89
002b
0008
0033
004a
0025
000b
000b
ffe3
fffd
fffb
ffe9
ffdb
ffe9
ffb4
0008
ff7b
ff81
ff7e
ffc8
ffdf
ffec
fff7
ff74
0019
ffef
ffb9
ff8a
0009
ffdc
ffde
0041
ffb2
fff0
0017
001d
0027
001d
0003
0030
0074
0016
ffd8
fff4
0032
ffdb
0001
ffe7
0008
fff6
0017
ffeb
0034
0017
001a
005e
ffd0
0016
003a
ffe6
006b
0017
ffd0
000c
003b
0021
0027
0015
008b
fff6
ffd4
ffd9
0038
ffa6
ff85
0042
0003
ffe9
0019
ffcc
0036
ffcc
ffd7
001a
fff9
ffe3
001a
0051
ff5c
ffe7
003d
ffd5
fffa
ffd0
fffc
ffe3
0011
ffb0
0037
ffb6
002b
ffd4
ff51
ff6a
006b
ffac
ffe6
0024
000e
ffca
ffe7
ffb6
0003
ffca
ffdf
0028
0028
ffdc
0028
ffd0
ff64
ffe3
0024
ffbb
005b
ffba
ffe9
ffd1
ffcd
ff66
ffc8
ffb4
0038
ffa9
ffea
ffde
0007
0038
0011
002e
0016
fffe
ffd5
0065
ffe3
0027
0035
0057
002b
fff4
0007
0013
0022
0024
ffef
0000
0027
000a
ffef
0002
0044
ffd7
0029
0022
003c
fffe
0016
0033
ffd2
0029
0013
002b
0063
fff2
0038
0033
ff96
fff9
ffcb
003c
0016
ff57
0038
ffef
003a
003a
ff91
0007
000e
ffd9
0002
001b
ffd2
000e
000c
ffd0
ffc4
000e
0030
0029
ffa9
ffbc
ffba
ffd2
0057
ffde
ffef
ffd5
ff87
ffcd
fecd
fff2
0029
ffd5
0013
ff16
ffed
002e
ffcd
ff80
ffef
ffa4
fff2
0022
ff33
002b
000e
fffe
001f
004b
0042
0076
0066
ffe6
002b
0012
004a
000d
001a
fff6
0005
ffdf
0017
001a
001f
004d
005f
0099
0012
0029
0033
ffd2
004f
000f
ffe9
0052
001c
001c
004a
0040
0071
0045
0005
fff3
004f
ffc5
fff8
005a
0048
ffd7
001a
ffe4
0029
ffec
0008
002b
ffec
ffdc
0024
0052
ffa9
ffee
ffd5
fff1
001a
ffb1
0008
fffd
fff3
ffa6
0045
003b
005c
0003
ff67
febb
004d
ff9c
ffae
ffe9
0024
ffbe
ffec
ffdc
ffe1
000f
ffda
0038
ff6e
ffbb
fff6
fec8
fed2
ffa6
ffc8
fff8
ffec
ff8a
0012
fff8
ffc8
ff21
ffa1
fed5
005a
ffd5
0017
003f
000c
0006
0028
ffb5
003f
0006
003f
ffaa
ffcc
ffaa
ffd8
001d
0000
000c
0051
ff2b
fff4
fffa
0011
fefd
0045
ffb5
001d
0051
fff4
002e
0028
0000
0079
0028
ffc1
ffef
003f
ff93
ffaa
ffb5
003f
0006
001d
ff6a
fff4
ffa4
ffcc
001d
ff70
000c
ffd2
ff81
fffa
ffaf
ffe3
fe5c
003a
ffd8
0034
0023
ffa4
ffc6
0011
000c
0045
0011
ffaf
ffa4
0023
ff70
0017
000c
ffef
0028
ff4e
ffaa
0034
fe22
fdf4
0011
fe9b
ffef
ffef
fed5
ffb5
ffd8
ff20
fd25
0017
ffb5
001d
ffd2
ff65
ffc6
0045
ffaf
0056
ffef
002d
0038
ffda
ff89
ff80
ffd8
003a
0051
0009
ffb6
004f
fef3
ff2b
0051
ffe1
001d
0051
0019
0028
ffd5
ffad
fefe
0055
0002
0055
0007
ffa0
fff7
0010
0028
0034
001f
000b
001f
fff7
001f
ffc1
ff8e
003d
0048
fff7
0009
005c
ffba
ffb1
0034
ffea
0055
fffc
ffd8
001f
0012
ff75
ffc3
fffe
004c
0019
0022
ffe7
0004
0024
fff0
0010
fffc
fffc
001d
0012
0048
0028
ffcc
ffea
0075
ffd5
0043
004c
0046
ffee
0028
ff70
0053
fffc
ffee
0028
0010
fee3
002b
fff5
0041
005a
ffea
ffc8
0012
001f
0012
ffd1
ffe5
000e
ffe6
003a
0030
003e
0056
005b
fff4
0028
0045
ffc3
0053
0021
0016
ffeb
000c
0032
0022
0013
0048
ffaf
0024
000f
0033
ffd9
fff6
0041
0008
ffff
0021
fff8
ffe3
0028
0033
0008
ffd9
ffed
0017
003a
0006
000f
fffa
ff85
fffc
ff92
fffa
0039
000e
0019
ffbe
fff6
001a
003b
ffe7
0008
fff2
ffc9
0015
ffd9
ffe3
fff1
0027
0017
003b
0012
0021
ffde
ff8b
ff99
ffe7
ffe4
ffdc
ffc3
ffe4
ffca
ffd7
ff51
ffd2
0029
ffe9
0021
ffa4
ffeb
0006
fffc
ff9d
ffd0
ff9d
ff7e
004f
ffaf
002e
fffc
0007
ffde
0022
0003
fffd
0007
0003
000e
0023
ff80
ffef
fff6
002d
ffe8
0029
0003
ff79
ff34
ffc2
ffc2
ff61
fff9
ffe1
fee5
ffeb
fe49
0023
ffe4
0011
003e
ffeb
0003
0023
feda
fff2
0015
fffd
0015
ffe1
ffe4
0034
ffb0
ffbe
0011
001c
ffcc
000e
ffef
ffc2
fff2
ffef
ffd0
ffa6
0015
0018
ffcc
ffe8
ff84
ffe1
0030
fff2
ffc9
0030
0023
ffe8
ffaa
0034
0053
0056
002d
000e
005d
fff9
ffe1
ffb7
ffbe
fff9
ff95
002d
0018
ffc2
003b
004c
000e
000e
0056
005d
001f
002d
000e
0045
ffda
0023
0042
0018
0000
0034
ffc5
fff6
0030
0059
0063
ffe8
fffb
0030
001d
ffe3
0013
fff6
0024
ffb5
0030
ffe3
fff2
0033
004b
0078
0048
003f
000a
ffe3
005e
ffdc
000a
003f
001a
0018
005e
0037
0076
0029
001f
fff2
0052
ffbd
ffc4
004f
003a
fffb
0037
ffe3
0029
001a
000e
0005
ffd5
fff4
0030
0030
ffef
ffed
ffef
ffd7
0022
ffc4
fff6
fffe
fff6
ffe8
0035
ffde
004b
fff2
ff74
ff0a
002b
ffa2
ff88
ffdc
000e
ffde
ffde
ff8c
ffde
ffea
ffb3
001f
ffa5
ffba
0011
fece
ff2a
ffcb
ffd5
fffe
fff2
ffb1
ffe3
ffef
ffc4
ff85
ffa5
fed8
001f
ffb8
ff7a
ff45
fff3
ffd5
ff51
ff87
ffbc
0012
ff82
ffd5
0023
ffb2
ff7a
006f
ff75
ffbe
fec9
ff2e
ff6b
ff6b
ff84
ffd0
ff87
0000
0030
ff54
ff08
ffc3
fefb
ffad
ffb9
ff1a
002e
ffa0
ffb4
fffd
ffd0
ff84
ff93
0042
ffb7
fff1
0021
fff8
ffb7
0060
ffd8
0028
ff84
ff5c
0017
ffda
ff61
0021
ff77
002e
003d
fee7
ffb2
0047
ff06
fffd
ff70
ff24
fff8
ff7c
ff47
004e
000d
ffb7
ffa5
0049
0012
0056
003a
0095
0033
000f
ffb9
0026
ffcd
febf
ffec
0023
ffbe
0086
ff51
003a
0026
ff31
0019
fffb
ff5c
ffbe
ff47
ff4c
fff2
fff6
0002
fff1
ffec
fff6
0012
ffd5
ffe3
0009
ffea
fffb
fffb
ffd6
0029
fff3
ffe9
0002
fffd
ffdf
fff3
fffb
0010
ffd6
ffef
0008
000a
0005
ffdd
ffdf
fff7
ffd9
fff7
ffe9
0010
000c
000e
ffe6
0004
ffef
0006
ffed
ffdc
fffc
ffd9
ffef
ffdf
0022
fffa
0023
001d
001a
ffe8
0006
0019
001e
ffec
ffe9
fff9
ffe8
0017
fff9
001a
ffe5
fffb
0014
ffd3
ffec
0004
ffe9
ffe2
fff7
0003
fff7
fff4
0016
ffe3
ffdc
ffd6
001b
000b
0004
0000
000d
0014
ffe3
0014
ffef
ffe4
ffe2
0018
ffed
ffe9
ffde
ffde
0011
ffea
ffd3
0006
ff7b
ff98
ff78
0010
ffe0
ff9e
ffe0
ffb2
ffd3
ff71
ffd5
0037
0047
ff99
ff48
ffb9
ff89
0017
ffb3
0055
ffa6
ffb9
003a
fff3
ffa0
ff93
ffda
003a
0064
ffb3
ffb9
0006
fffa
0014
ff92
ffed
ffc3
fff7
0011
ffab
ffe0
ffc9
000a
fffa
002e
ffc0
ffc2
ffca
fff7
fff9
0013
fffd
ffe3
ffe5
ffc5
ffd7
ffb9
ff89
ffef
ffe3
001b
ffcf
0014
0045
0055
fff9
ff58
0038
0019
ffd3
0006
ff9e
ffdd
0024
ff9f
004e
0027
ffe3
000e
003e
0011
0045
0030
0034
0051
0011
ff9e
0007
0075
ff89
0020
002d
ff61
0008
0037
ffe6
ffdd
fff4
ffee
0002
000e
0008
001f
ffea
0018
001b
0006
ff9e
ffe8
0037
0010
002d
000c
ffb3
0004
000a
fff8
0012
0023
fffe
002d
fff6
001a
004d
fffc
001a
000e
0018
0006
fff6
000c
0006
ffec
000e
fff2
0000
fff6
0018
0010
ffcf
fffc
001f
ffe3
ffe5
ffec
ffcd
fffc
003b
0000
0002
0014
001f
fffe
fff0
002d
0031
0012
ffa2
ff67
ffc5
ffe1
fffe
fff8
fff6
ffdf
fffa
ffdd
fff8
000a
0000
fffe
ff07
ffd9
ffd3
ffea
ff67
ffd5
ff11
0002
0002
ffbd
ffe5
ffe8
ffe3
ff86
ffdf
ffe6
0027
ffe3
0040
0040
0057
fff2
ffc9
002e
0037
ffec
ffe7
0005
001b
ffd9
0012
0007
fff2
0034
0027
0022
ffee
0037
000b
0000
0040
0007
ffe2
003d
0024
001b
0010
002b
0052
0032
ffe9
fff0
002e
ffdc
ff7e
0044
fffb
ffcc
001e
ffe5
001b
0009
ffd5
0030
fff5
ffe2
0009
0017
ffd7
fff2
0017
ffd0
0032
ffb9
0024
ffee
ffc7
ffe0
002e
ff90
0017
fff5
ff6c
ff53
0012
ffc5
ffbe
fffe
000b
ffb0
ffc7
ffbc
0010
ffe7
ffc3
000e
ffec
ffee
fff5
fff2
ff65
ffac
0000
001b
0010
ffc9
ffc5
ffdc
ffc0
ff77
ff9c
fedf
0042
ffc0
0019
0021
0049
ffdb
0000
ff2a
0036
ffb5
0032
ffbb
ffe5
003a
0006
ffe3
ffed
0045
003a
ffe9
0045
0015
ffa6
0025
0087
ffd0
ff62
0013
0013
0041
0030
0023
007f
001b
001b
ffe7
0011
ffc8
0023
ffa2
ffdb
ff6a
0021
ffdf
ff47
0030
0002
ffb9
ffa2
ffca
002a
ffc6
001f
0021
ff79
000f
0025
ffa9
ff3a
fffe
0000
0002
0000
ffeb
002e
ffeb
ffe5
0004
ffe7
0008
008b
ff6e
fff1
ff43
ff9e
0004
fef8
0077
0062
0006
ff57
001b
0008
000f
002e
002c
ff92
0055
0000
ffd4
ff87
0028
0041
0013
0023
001b
000c
000a
0016
002e
ffe4
fff2
000a
ff51
0017
ff9e
0041
ff8f
ffa3
000b
0037
000c
ffc9
002b
0012
0003
0042
fff9
ffe7
fff9
003a
ffe4
ffaf
0041
ffd0
0016
0032
ffe7
0042
0003
0019
0004
0028
0024
0021
ff6c
003e
ffa6
0039
ffef
ff90
0029
0003
fff8
0003
fff2
0000
0008
0033
000a
fffd
fffc
0056
001c
ffd1
fffd
000f
0013
ffee
fff4
0020
0027
0000
ffeb
0016
fff6
0061
ffe3
ffcc
ff5c
ffaf
000f
ff86
0056
0012
001a
ff97
ffed
ffee
0020
0023
0046
ff96
0006
0017
0000
ffa1
0025
001e
ffe2
ffe4
0032
ffff
0017
fff7
0020
ffdf
ffc0
fff4
003a
ff61
000c
ffbe
fffb
003e
0028
fff4
004a
ffc8
ffec
ffd0
ffdf
fff1
ff7f
fffb
ffd4
ff59
ffdc
0036
ff7b
0013
ffed
ff9e
ffed
ff8a
ff65
ffe1
fff4
000c
ffca
ffe7
0010
ff97
0030
ffe5
fff4
0023
ffe7
fff9
003b
ffdf
ffc0
fff5
001d
ffdc
ff8b
ffe1
ffb4
ff83
ffd8
0026
ff5e
001d
ffb0
ffaa
0014
ffa4
ff8a
ffe9
fff3
000c
ffd4
ff56
0027
ffb5
fffd
ffb9
ffe9
0052
ffe9
ffec
001c
ff7d
ffa6
000b
0005
0001
fff5
ffa5
ff8d
ffc4
0004
ffed
ff89
ffe5
ffd5
0007
ffdc
ffe5
ff77
fffc
001c
ff1f
0048
0004
0018
ff66
003b
ffd9
0036
ffcc
ffed
ffe4
ffa7
ffec
004c
ffec
ff32
001c
0016
ffa3
0000
ff14
005b
0000
0025
ffdd
0002
0030
0006
ff59
0025
000d
000f
ffbd
001c
0030
0020
ffc6
ffce
ff68
0036
ff89
ffbb
ffb8
ffe8
001e
fff1
0006
ffdb
0013
0009
0000
0000
ffdb
0002
ffb8
fffe
ffb9
0016
fffc
001a
ffd2
003f
0009
000d
ffd2
ffc3
0011
000b
ffdf
ff92
ff85
002d
ffc8
0020
fff5
ffd2
ff89
ffb8
0013
ffdf
fff1
fffa
ffa3
fff9
ffe8
000d
ff84
0023
ffd3
0018
ffed
0014
ff8f
0055
0019
ffea
ffdd
003c
0033
0056
fff3
fff0
003c
0066
fffd
007f
0010
0053
ff71
ffa4
0010
ffb7
0019
001d
ffb7
003c
0016
0003
0016
0019
000a
fff0
fff0
ffc1
0020
fff0
0020
0016
0026
0010
fffd
000a
000a
ffda
0006
0019
ff7b
0023
ff6b
000a
0193
ff3e
002c
ff78
0019
0026
ff7e
ffe0
fffa
ffe0
ffbd
0030
ffb7
0006
fff0
ffe7
ffd4
0039
0039
002c
ffad
ffc7
ffaa
ffd4
fff0
fffd
ffc1
0020
ff3b
005f
fef2
ffed
0000
ffda
fff6
ffa1
0019
fffd
0000
fff3
ffbd
ffb1
ffc1
0043
ff55
0013
0010
ffe7
ffc4
0053
002d
ffe2
005c
0037
0021
0024
003e
fff0
001b
0059
ffcb
0024
002d
001f
0025
0009
0033
0016
fff5
002c
ff9f
003a
0002
002d
ffd4
fff4
0017
ffe1
0027
0017
ffe9
ffe2
0005
fffa
0010
ffec
ffef
fffd
0046
ffd4
0021
fffd
ffbd
fffa
ff9e
0041
0046
fffa
0032
ff99
0016
003a
003b
ffe4
002c
ffdb
ffe2
0017
0008
0003
fffe
ffed
000e
0029
0038
0008
fffe
ff9b
ffad
ffd0
001e
000b
fff5
000b
ff82
ffe7
ff3a
ffef
0027
ffba
ffdb
ffb0
0013
fff8
ffce
ffc2
ffdc
ffbd
ffb5
0035
ffad
002c
001c
001f
0025
0053
0014
0012
fff3
000e
0033
0056
0030
0014
0023
0014
002a
0021
ffea
0059
000e
0000
000d
fff6
0008
fff7
ffad
0020
fffb
0005
000c
0017
0028
0021
0011
fff0
ffcc
0002
002a
0007
fff2
ffdd
ffde
0026
ffef
fff2
fffc
fff3
0020
ffe0
ffba
003c
006b
ffe5
0004
ffdb
001e
fff0
0046
ffc2
fff1
0007
0017
0011
ffc5
fffb
fff2
0008
0016
000b
0019
002e
fff8
ffad
ffde
0015
0000
0002
ffc4
ffa0
ffe0
ffda
ff8d
0034
0002
ffc7
ffee
ffbf
0025
000c
0023
fff1
ffe3
ff9d
fff8
004f
ffa3
000b
001e
ffde
000c
0049
fff8
001d
0089
ffdb
ffbd
0027
0019
ffec
000c
ffdf
0052
ffc1
ffe9
ffe5
0012
001f
000e
0077
fff0
0031
0004
ffe9
0031
0027
ffe7
0031
0035
002b
0012
0039
0050
001d
0004
ffe7
0041
ffd9
ffba
0068
000e
ffe5
fffa
fff2
0012
ffbf
ffc9
000e
0033
ffdd
0029
0058
ff92
000e
0068
ffc7
fffa
ffdf
ffee
001f
000e
fffc
0016
ffc9
0019
fff4
ff31
ff3c
003f
ffa6
ff87
0064
ffea
ffb8
000e
ffb2
0014
ffa4
ff96
0006
006e
ffcf
001d
ffbf
ff40
ff9a
006e
fff2
002b
ff96
000e
ffc7
ff92
ff19
fff4
ff07
005a
ff92
0002
ffe6
ffe8
003d
0039
005e
004d
ffdf
004f
0048
ffe4
0058
0018
0042
ff32
ff99
0037
ff8e
0012
0030
ffbc
0044
ffdd
000b
0014
000f
002e
0007
fff1
ffea
ffe1
0025
002a
000f
0016
ffdf
fff7
fff7
001f
0002
0025
002c
ff74
006e
ff4c
003b
007b
fff1
001c
ff6b
000d
0007
0037
ffe8
003d
fff7
ffe8
000d
ffb8
0014
000b
000f
002c
0014
002e
001f
ffce
ffa2
ffa6
ffaf
ffee
ffd9
ffbc
000b
ff9b
0063
feea
ffd2
fff9
ffdf
fff1
ff67
0025
000b
fffe
ffe6
fff7
ffcb
ffc3
000b
ff83
0002
001a
fff9
ffc7
0058
000b
0010
000b
fff2
ffe4
ff1d
0020
ffd9
ff8b
ffcd
ff76
ffeb
fffb
fff2
000e
002c
0010
ffee
fff7
ffe9
001e
ffe2
0020
fffb
ffb7
0040
ffc7
fff9
001e
fff7
0040
0017
0012
fff5
fff7
0007
fff9
fff7
fff9
ffb0
ff72
fff0
fedc
fff7
0012
0002
ffc7
ffe0
0000
ffee
0005
0005
ffcb
fff7
ffe9
0005
ff8b
fff5
ffcb
0015
fff9
ffde
ffee
001e
000e
0027
fffe
fffe
fffe
ff76
ff8f
ffc7
ff6b
0019
fef3
0022
0019
fff7
fff9
0025
fff5
0053
ffee
000b
fff0
0009
000b
fff0
ff8d
0037
0017
0007
ffe0
000e
ffdb
0002
0023
fff2
ffab
0034
ffe6
0084
fff0
001c
0018
0036
0018
0010
ffed
ff81
ff7a
fffb
ffe6
ff54
ffd3
003d
ffd8
001f
ffdd
002d
0002
ffe4
ffe8
0009
0042
002a
ffbc
ffc0
fff2
0018
0015
0010
0002
003b
0018
fff4
001c
003b
0010
ffd8
000c
ffd3
ff88
ffd1
0010
ffdd
0000
fff0
ffbc
fff4
ff59
fff7
002f
fed5
ffd3
ff85
0042
0039
ffb7
ff12
ffe8
0039
0026
001f
000c
0007
0084
ffe8
001c
0021
ffe4
ffe8
000e
ff94
0028
fffb
ffdd
0002
ff54
0000
ffcf
0021
ffe6
0005
0005
ffc3
ffe4
ff83
ffd1
0034
fff4
ff23
ff0a
ff8e
ffc7
ffdc
ffd5
0039
ff39
0027
ff67
ffcb
0044
0032
0044
0084
001c
ffce
ff55
ffc7
ff0e
ff52
ffd9
000b
ff59
fff5
0035
ff55
002b
ff07
ff79
ffb9
ff67
ff6a
ff7c
ff19
ffd2
ffee
002e
0035
ff79
0039
ff40
ffeb
003d
ffcb
000b
0059
ff8e
ffb2
0007
0024
ff7c
0000
ff2e
0019
ff6a
0004
0020
fe7c
0004
fef1
000e
ffc3
ffc7
fe3c
003d
0000
0032
ff99
fff5
004b
ff80
002e
ff43
ffe4
0035
000e
ffd2
0079
fec3
ff59
0015
ffe7
0052
fff9
ff00
ffa7
ff1c
ffbc
000b
0012
0012
0059
001c
ffe0
ffb2
001c
0023
0012
0075
ffe9
ffee
fef8
003b
ffb4
ffa2
fff4
ff85
ffcb
0023
ffe9
0058
002f
ffd7
ffd7
0017
ffd1
0058
ffc5
004c
0000
ffb4
006a
0006
ffd7
ff8b
002f
0087
0099
ff8b
ffb4
0023
0012
0012
ffee
ffe9
ff96
0012
000c
ff7f
0012
ffe9
ff96
ffba
0012
ffdd
ffb4
ff27
ffbf
ffa8
0000
0012
ffe9
ff7f
0046
0006
fefe
ffe9
0006
ffee
0064
ffe3
0035
fff4
0006
0035
ffd1
ffd1
ff85
ffee
ffe9
ffa8
0006
0023
ffe9
feb7
ffc5
0035
00c2
004c
0029
fd17
fffa
ff85
0000
ff2d
fff4
001d
0023
0012
0012
ffb4
ffd7
0020
0052
00b6
003b
ffd4
000c
003b
ffee
003b
002f
0023
ffa5
ffeb
ffd1
0096
0035
0026
0041
0006
0038
0093
fffd
0064
0032
003e
005b
0006
ffda
ffeb
ffda
00c5
0020
ffda
ffb9
007c
0018
ffae
0081
fff1
fffa
001d
ffe0
0032
ffe6
ffb3
ffcb
007c
ffd4
0044
0044
ff99
ffda
0112
fff1
003e
fffd
0000
ffcb
ffdd
ffb3
0000
fff1
0079
ffb6
ff2f
fec2
00ae
ffa2
ff0c
0061
001a
000c
004a
ff8d
0047
ff70
ff79
0020
0052
ff61
ff73
fe8a
fecb
ff79
00ae
ff73
0018
ff99
0003
0009
ff4c
fec8
ffee
ff00
007c
ffc5
009b
ffd1
ffd9
0000
0017
008c
ff9b
ffa3
ffe1
002f
fff0
006d
0008
ff5d
ffba
0000
0010
ffca
ffc2
0027
fff0
001f
0010
0010
ff93
0118
002f
001f
ffe1
0000
0000
015e
0000
ffe9
ffb2
ffe9
003e
ffd1
ffba
ffca
0017
fff8
ffb2
0046
004e
00da
ffe9
ffe1
ffd1
00da
ff45
ffe1
002f
0000
0010
fff0
ffd9
fff8
ffe9
ffaa
ffaa
ffc2
ff9b
0010
ffb2
ff7c
feff
ffca
ffa3
ffd9
ff93
ffca
ff74
ffe1
0075
0010
fff0
00ca
fc25
ffb2
ffba
006d
ffd1
fff0
fc25
ffe9
ffa3
ffba
ff45
fff8
004e
ff74
ffb2
ffc2
001f
ffa3
fffd
0010
0054
000a
0012
feb4
003c
ff9f
ffbf
ffbc
ffce
0000
0025
ffe1
0049
005c
0015
ffc1
0012
0008
0034
ffd1
0093
000d
ffc9
0059
0008
000a
fff0
0018
00aa
0063
fff6
fffb
ffeb
fff0
fffb
ffa2
ffaa
ff85
ff95
0003
ffa7
000a
0010
ff78
ff9f
fff8
0003
ffb4
ffc6
0018
ffa2
ffee
002c
ffc6
ff68
001d
fffd
ffee
001d
ffbf
001f
0012
0025
0037
ffc1
ffe3
0044
ff95
ff95
ff6b
ff9d
fff6
ff1f
0012
000d
ff63
ffcc
002f
0022
0044
0015
0008
ffeb
0008
0022
0018
ff8d
0027
0044
0000
ffac
003a
ffd9
0032
000c
004f
001c
ffc7
ffe2
ff05
001e
ff8f
ffcf
ffb3
ff9f
000c
0002
ffea
002f
0006
0016
ffbd
0002
0016
0041
fff2
008a
ffe8
ff99
0037
0008
fff6
ffe6
fff0
0061
004d
001a
ffd5
0006
0002
fffc
ff8b
ff93
ffa9
ff80
0002
ff50
002d
fff8
ffa1
ff89
0010
ffe8
ff9b
ffc9
ffea
ffb7
0020
fffa
fffa
ff3e
0055
0006
ffe6
ffde
0006
000a
008a
0031
0022
001e
0012
0069
ffc1
ffcf
ff40
ffbb
fffc
ff2f
0043
004b
ff78
ffbd
ffe6
0018
004f
0024
0049
fffa
fff4
000e
ffda
ff4a
0045
0010
0020
ffe6
fffe
ffbf
000c
fff7
001f
0054
0047
0028
0092
0042
000d
0042
001a
0009
0054
004b
ff77
0016
0031
0012
00c7
0004
004f
ffb9
004f
002c
fff7
ff54
ffea
004b
0031
003e
002c
0031
ffe6
fffc
ff58
0028
ffe1
ffc2
0004
0031
ffd4
0058
001a
fff7
0058
ffdd
ff4b
006a
ff61
ff1a
0031
ffa8
fff3
0054
0031
0031
ffd8
ffb9
ffcb
0016
ffb5
ffb5
ffcb
ffee
ffa8
ff35
fe6e
ff23
ff9a
fe58
ffb5
ff6e
ffd8
ffea
ffe6
ffea
ffe1
fe6e
feee
0177
fef3
fe4b
fdcf
ffd8
ff65
008d
ff80
0100
ffa8
ff5d
0028
febe
ff23
ffb9
ff6e
007c
0028
0039
004a
0004
ffcf
ffd8
0006
002a
0020
fff8
fffc
000b
0035
fff7
ffb8
0053
0017
0020
0040
0026
002d
0009
0017
0017
fff1
ff96
001e
ffed
0035
fffc
004c
001e
005d
fff3
0020
ff3d
ffbe
ff0f
ffa5
ffd6
004a
ffcf
000d
0002
0015
ff1d
ff8a
0037
ffcb
ffcb
ff70
0008
002a
0059
000b
fff3
ffe0
ffad
0020
ffa3
0002
ffc3
0022
ffe4
0026
fff5
0008
ff13
fff8
ffe4
ff70
0015
004c
fff5
002f
0006
ffc9
ff96
ffd8
0090
fffa
ffed
0046
fffa
000f
0070
0011
fff3
000d
fffe
ffed
ff70
ffdc
ffcf
ffd8
ffb6
002d
0006
fff4
ffcc
ffcc
ffdc
ffda
ffea
001a
ffad
ffd4
0028
ffe8
ffe0
0002
0073
fffe
ffa9
ffec
ffc1
ff9d
0059
ffee
ffe8
ffea
0000
000c
ff99
ffc7
ff91
ffee
0002
000c
ffe2
0000
000e
ffee
0016
fff4
ffe4
fffe
ffd6
fff2
0035
ffe2
000a
fffe
0024
0006
ffa1
fffc
ffc9
ffe2
fffe
000a
ffe6
000e
fff4
ffe8
000c
ffe8
ffb1
fff6
ffe0
ffe8
ff97
0018
002a
0020
0047
0024
ffde
0010
ffde
fffa
0035
0000
0018
0032
0073
0041
001c
0055
fff0
002e
0079
003d
fff8
0030
002e
ff54
0006
ff77
fff2
0000
0006
ff04
002a
0033
0005
ffd6
000e
fedb
0041
ffc4
fff9
ffe4
ff9b
0002
ffe2
fff2
003a
0025
0017
ffc6
0037
fff0
0027
fff0
007d
fff7
ff73
0055
0012
0035
0033
0010
00a4
0058
000e
0012
ffc4
fffe
ffdd
ffc6
fff7
ffbb
ffb9
fff2
ff8a
001c
0007
fff0
ff9b
fff9
ffdd
ffc4
0009
fff2
ff5f
0015
fff2
ffee
ff43
000e
ffd6
0009
0002
ffd6
0015
0037
0017
0017
004a
ffd4
003c
ffad
ffab
ff81
ff6f
ffe9
ff37
002c
003c
ffe4
ffb9
0009
0019
005a
0005
0023
ff7d
000c
002a
ffd4
ff9b
0030
0037
ffe4
ffcb
000e
ffd6
001e
004a
001c
00c5
002e
ffe7
0071
0035
0004
0058
0051
003c
ffb3
ffe0
ffe0
0074
004d
003c
0043
000e
004d
004a
000b
003c
004a
0046
003f
ffd6
003c
fff9
003c
008d
0038
ffeb
000e
ffd2
fffc
ff4d
001c
ffe4
000b
0031
0007
004d
ffeb
fff9
ffb6
0063
ffd6
ffeb
fffc
000e
0004
005f
ffe7
0015
fff5
ffdd
0038
ffee
0004
ffee
0019
002e
000e
fffc
ffcb
ffc8
ff7e
fe41
0054
0004
000b
0058
ff9d
0071
ff34
ff26
ff93
0066
ff8c
ffb6
fee7
ffd6
ff9d
006a
ff4d
ffba
ff8c
ffd2
0027
ff2d
ffee
ffcf
ffe4
000b
0015
