007f
008a
ffdb
ff6c
ff16
ffef
0001
ffd8
fff5
ff6f
00a7
0058
0044
0020
ffd9
002c
0060
005a
0006
0056
ffcc
0041
000d
002f
ffe5
000d
0007
ffaa
ffde
ff81
ff86
ffa7
ff8f
ff8e
ffba
0037
ffc8
0016
ff8d
ff91
ff66
ff85
ffbc
fff1
ffde
0051
005d
ffcb
fff9
ff2e
00af
001a
ffc3
ffad
ffb4
ff91
0006
ffcf
0026
005a
ff8b
0031
005d
0065
00a8
ff22
ff48
ff5a
fffd
fff2
000a
0055
ffe4
004d
0066
ffe0
fff6
ff96
ff93
ff69
