0006
001c
0034
ffff
ffd6
001b
0002
0084
ffb2
0011
fff7
0030
0034
ffdb
003d
ffdc
ffe6
0043
002b
0031
002f
004a
ffff
0039
000b
ffb2
ffcf
ffc5
0029
ffe0
0015
002c
fff8
007c
001f
003c
0029
0039
fff7
0037
004c
ffcc
ffde
ff9c
ffe8
0008
002e
001b
ffe4
ffdd
0015
0036
0032
ffd3
ffc7
002d
ff92
ffd6
ffb6
fffa
0056
ffc0
0028
ffc5
0051
002b
0042
000a
fff9
008b
002d
00b1
0006
000e
005b
fffd
ffe7
ffc5
0006
0063
ffb9
0051
002a
0036
ffc0
0095
0072
0097
0021
ffbc
000e
ff8f
0014
ffff
ffef
0042
0016
003e
ffb4
ff9a
fff0
0046
fff2
0054
ff84
ffec
fff2
0008
000e
ff02
ffb8
0088
0012
0028
ff84
ffc8
0026
0066
ffe8
004c
ffe2
0040
0022
fff6
fff2
ffee
ffbc
001c
fff0
0004
ffc8
004a
002a
0042
0014
0070
ffbc
fffa
fff8
0064
0062
000e
0048
0028
ffbc
ffa5
fff8
ff98
ffeb
ffeb
004a
ffc5
003b
0013
ffd6
ffed
ff0f
001c
ffb0
0048
0052
0011
0008
ff74
ffbe
fffc
002e
006a
004c
005d
001b
fffa
ffab
0057
ff8e
0065
00a3
000f
ff2a
0055
ffad
0046
007f
00b6
0046
0039
0041
fffc
0098
fff5
00a1
0098
ffd1
ffb5
ff96
ffac
ff7a
fff4
ffdb
ffee
0012
0033
ffcd
fff2
0004
ffe6
ffb5
fffe
0049
0025
ff98
fff8
ffa0
004d
ffee
007c
0014
0051
ffea
ffe8
fffa
ffcb
0012
fff4
00a7
0062
002b
007e
ffd3
00bd
0045
00f9
0047
007c
0056
0074
0074
ffea
0066
0076
ff7a
0063
feee
ffaa
003a
0006
0056
ffe8
0061
ff89
ffb9
0029
ffb7
0047
ff83
004b
ff7f
0034
ff90
0009
004b
ffe6
ffcc
ff94
ffe4
0004
fffa
0061
0038
0013
ffd1
0004
ffdb
001a
ffd5
001a
0022
ff99
ffc6
ff47
ffb2
0006
fff5
000f
0050
ffbf
0018
ffd3
0022
008a
ff93
0002
0035
009b
ffbf
00b3
ff91
ffe3
002e
004e
001a
ff27
ffc3
0068
006d
0085
0013
0000
ffe0
00c1
ffe0
00a9
ffe8
0009
0018
0007
0031
ffe0
ffba
0050
0085
002c
0022
000f
ffef
003a
ffe8
004d
fffe
005c
0057
fffd
ff9a
000c
ffc4
ffe8
0017
fff2
0002
ffbf
0022
ffed
ffed
ffbf
ffe7
0058
0031
0035
ff8c
0050
ffef
0017
0066
ffed
ffbf
ff9f
0039
ffe6
fff7
001a
0027
003b
0085
0009
ff67
005b
ff86
001c
002d
ffad
ffb3
ff3c
0030
ffa3
ffd3
ff75
0000
0020
0075
0039
ff5f
001c
ff6f
ffbc
ff9e
001c
ffdb
ffef
ffe6
0017
0046
ffdf
0054
ffb7
ff22
003b
000e
0052
002d
ffdd
001a
ffda
0041
ffed
0010
ffcd
003f
ffa9
0000
0003
ffc1
ffda
0018
ffdb
ffcc
ffc3
0093
0015
0010
ffd4
0021
0003
0013
ffe4
000e
0060
002a
ffda
ffc8
0000
ff94
003d
ffd3
fffe
ffea
ff93
ff9b
0027
0058
0017
000b
ffa8
ffe6
002a
ff95
0023
ff83
001f
0000
0022
ff83
fff7
ffc4
002a
0047
fff7
0023
0018
002f
0009
0000
0041
0078
fffb
0023
ffe4
0079
001a
ffb5
0023
0013
0033
003c
001f
004c
ffcf
002c
004b
0023
0038
0000
0002
ffd6
ffb3
0046
fffe
fffe
fff9
0034
0016
0046
0073
fff1
0048
ffc2
0025
0032
ffc9
ffbd
ff3e
0055
ffea
001b
ff97
0011
0025
003c
0048
fff6
0025
fef5
ffa6
ffec
ffb8
ff0e
ff6a
003c
ff59
ffa9
fefd
ffd8
0025
0082
0023
ffe7
0002
fec3
ffe7
ffc7
0010
ff71
fdfc
ff89
003d
005a
ffe7
0052
ff81
ff33
ffd7
ff91
001d
ff4c
0029
001d
0039
ff17
ffba
ffd7
0008
ffec
0010
0014
0000
ffa6
ffa2
ff9a
0019
fff0
0056
0087
0062
ffcb
ffa6
ff91
005e
0000
008b
004a
fffc
0000
ff79
fdf8
0021
ff89
0052
ff9d
0015
ffe6
ffbe
ffa2
fffb
ffb9
fffe
ffdd
ff9a
ff8a
ff5d
ffb2
ffd6
ff9d
0005
007b
006f
ffb7
fff2
ff67
008b
001c
00aa
ffe4
0009
fff4
fefa
ff72
fff2
ff93
0076
00b3
0087
ffed
fef3
fed4
010d
00a1
010b
005a
0039
0044
ff79
fffb
0061
ffbe
00cd
fff6
ffb5
ffa1
0011
001e
ff57
ff16
ff86
ff9a
0040
0000
0051
0000
fffd
0011
fe52
0058
0022
ffc3
0000
005b
ffec
ff72
005b
ffd4
fffd
0051
0014
0007
fffd
ffd4
ff83
0040
004e
0000
fff2
002c
004e
ffca
004b
ffde
0077
0051
005f
002c
fff6
ffd4
002c
0017
ffd9
003a
002d
0023
ff79
ff96
ffd0
ff7f
0023
0037
ff12
ffd3
ff92
ffc6
ff99
0027
ffc6
0006
ffc3
ffe6
ffcc
000a
003a
ffd3
0051
0000
ffa3
ff92
ffc6
ff7f
ffc9
0057
ffac
ffb9
ff75
ffd9
001a
0017
fff3
000d
0023
0030
ffbc
fe67
005d
febe
003d
0070
ffd7
0042
0003
ffdf
ffe0
fffe
0006
ffb5
0015
005e
ffa6
0003
ff8b
0026
0004
0080
ffee
003c
000e
0016
0059
fff5
007b
ffe8
0011
0066
0000
ffb4
0014
ffa4
0034
004f
0016
ff8e
ffe3
fff4
0047
0058
004d
0036
ffe6
0046
ffe2
ffef
005d
ffde
007d
0039
000d
ffa8
ffda
ffb6
001b
ff9b
0017
0011
0008
000b
005d
ffed
0028
ffd8
ffac
0004
0050
fffa
000f
ffd6
004e
ffd4
00f2
fffa
fffe
ffc1
0089
0037
fffe
ffed
0013
0002
00a2
ffce
0013
0000
00d9
002e
00e5
ffbd
ffe9
000f
ffef
003b
ffd4
003b
0039
ffb7
0027
ffdc
ffb5
ffe8
001f
ffd9
002e
ffc6
ffd7
ffd4
ff89
0000
ffb2
0000
001d
ffef
0041
ffcb
fff6
ff73
0066
0022
0091
0027
000a
ffd2
ffa6
ffde
fffb
ffe3
0035
0033
0094
ffe1
ffa9
fecc
00c2
0066
008f
003a
0055
0046
ff82
ffae
ffea
ffb7
00a0
ffdf
ffc9
ff75
0002
ffc7
0058
000b
004d
ffbc
ff8d
ff3c
0052
001d
ff9d
fff7
003e
009f
ff23
001f
000f
000f
ff31
ffb7
0014
0018
0033
0028
ffc9
0037
ff82
001f
fee8
0044
0000
0047
fffc
ffcf
0073
0025
0058
ffa3
0002
002a
fff3
000d
0028
0018
0087
0036
fffa
ffac
fffd
ffc5
ffff
ffe2
ffd7
ffd2
0000
ffde
002b
0029
002c
ffea
ffca
000b
fff0
fff9
000a
0005
001e
0031
0055
0007
ffce
ffd8
ffde
0006
0034
fffa
002c
0011
fffd
000d
002c
fff0
0006
0039
0076
0010
ff95
ffbf
ffe4
0058
0003
0031
000e
0010
ff7f
0030
0039
0002
ff0f
fff2
ffd7
0029
003e
0067
ff48
fff5
0091
0050
ff5f
0040
ff94
000e
ffe9
0029
ffad
ffd9
001c
ff9d
0053
0037
ff8b
0037
ff7f
0025
ffc2
007e
ffd0
005c
ff7d
ffd0
ffee
ffd7
0015
0012
0067
0040
ff58
ff06
0005
fedc
fff7
0004
ffec
ff81
ff8f
ffb3
002a
0028
0020
0032
ffb3
ffa3
0000
ff14
0002
ff00
001a
0036
0036
ff0c
ff73
ffde
0006
0047
002e
fff8
0057
0043
ff6f
0036
ffde
0020
0043
0055
fffa
0004
0055
ff3c
004f
0038
0075
002c
000a
006b
ff8f
0059
0045
0043
006d
0084
007f
0071
005c
005c
004f
ff76
0028
ff4a
0062
003f
ffdd
0017
ff0c
003d
0019
0079
0032
000f
fff6
000d
0043
ffeb
0038
ffed
003a
0056
0011
ffae
ffc6
ffbd
0028
ffe9
0058
ff8f
ffef
0019
0030
ffe7
0038
0028
ffdf
000f
000f
ffdc
002a
ffa8
fffa
ffeb
ff92
ffbc
ff95
ffc0
ffbb
ffec
ffbb
0011
0029
ff9e
0007
ff57
0005
ffa8
ffb6
0038
ff8e
ffec
ffbc
0001
ffe1
0034
003e
0042
005e
ffdf
fffd
ffd4
0019
0013
0009
005e
001f
ffeb
0014
000f
0044
0051
007d
0073
0060
0010
ffff
001c
004d
0051
0073
000f
ff98
fff5
fff1
fff5
ff40
0015
ff32
fff6
ffd9
0010
0027
ffd7
0065
ffe3
ff92
0047
ff96
0018
ffe3
ffeb
ff92
ffd6
ff8b
ffca
0024
ffe1
ffe9
fff8
ffe4
fffa
0005
0072
0002
0013
fff1
ffb7
0002
003c
0018
0006
00a7
0058
ffe8
fff1
0024
0025
0003
0088
ff52
0049
004d
001e
0049
ff37
0069
ff06
0084
0069
fffc
0049
ff64
0033
000a
fff2
ffe0
fffa
0010
fff8
0002
002b
ffe2
0004
000e
0080
ffdb
0023
003d
fff6
0008
ffa3
ffde
ffd5
fff6
ffa5
ffcf
ffc9
ffb7
fff0
ff86
ffe2
0047
ffe8
002d
ffe0
ffb3
0026
0026
ffa7
ffec
ff54
0059
0007
0056
ffc9
0030
001e
ff20
ffe3
ffa7
ffbc
fff2
0059
003f
ffe5
ffda
ff58
0098
0066
008f
0027
0004
fffc
ffac
0000
002b
001e
0061
ffec
0034
000b
000e
ff1d
00a6
0056
00af
005b
ff7f
ffb3
ffda
0037
0032
005b
003d
002b
0020
ffbf
ffea
fff5
000d
ff95
ffea
ff6c
fffa
ffb9
0014
004e
ff79
003a
ffd7
ffd6
fff1
0035
fffb
fff9
0037
fff1
0013
ffe4
ffb3
ffce
ffc6
0021
ffb1
fffc
ffe9
ffab
ffa4
003a
0040
0025
ffd2
ffe7
0017
000f
ffe3
fff3
ff99
001c
000f
ffd4
fffa
ffd4
ffed
ffb9
fff8
ff8b
fff6
003a
ffad
005a
ffbd
ffcc
0043
fffe
0053
fff1
fffc
ff9a
ffd2
0004
ffe5
0008
ffa0
0019
ffa4
fffa
ff6c
ff9e
0045
0017
005c
0017
ffc6
ff6a
ffcc
ffeb
0030
fff8
ff66
ffd2
fef7
ffb9
ff98
ffb7
000a
001f
ffe9
0008
ffc1
ffd7
ffdd
001b
002d
0041
0004
ffee
fff5
ff9a
ffe8
ffc3
ffe0
001f
ffd4
fff8
ffda
0063
0027
000c
000a
ffe2
0029
ffce
fffc
ffc7
0043
0019
ffbc
fffb
ffe4
ffd1
0028
ff99
0057
ffc2
fffc
ff92
0028
003e
0070
001d
ffe2
ffad
0036
001c
000f
ffdd
002d
008c
009f
0053
0045
0010
00aa
0004
009c
ffa4
0055
0040
ffbd
0037
ff5e
000b
0044
002f
006d
0021
fff5
fff3
0081
0021
003d
ffed
0030
008b
0004
0023
ffc0
ffb8
0034
ffa7
ffed
ffa1
ffbf
ffef
0015
ffc8
fffc
0018
ffb4
ffe4
0050
ffc0
0001
ffcc
ffbc
0075
ff4e
0071
003f
ffed
0000
ff29
007e
ff15
0050
005b
fff1
002d
ffc5
000f
ffe2
0000
0016
0052
0006
0020
fffa
0021
ffe2
004a
002b
0080
ffa7
0014
001c
0032
ffea
ff79
ffcc
0004
001e
000f
ff9a
fffc
ffa1
fff7
ff9c
ffce
000b
ffdf
0057
fffc
ffbf
