memory_initialization_radix=10;
memory_initialization_vector=
93,
-62,
278,
115,
167,
18,
-26,
-92,
6,
66,
-152,
-106,
76,
-32,
177,
-41,
9,
12,
111,
151,
18,
188,
-508,
136,
-61,
285,
-34,
103,
108,
-240,
34,
-499,
55,
44,
-489,
-127,
194,
-155,
-264,
-69,
-27,
107,
152,
24,
-19,
-99,
17,
57,
2,
280,
142,
19,
130,
-176,
103,
288,
-26,
62,
63,
-217,
22,
77,
64,
60;
