memory_initialization_radix=10;
memory_initialization_vector=
41,
-190,
-22,
69,
97,
93,
-154,
210,
-58,
83,
130,
106,
-340,
-53,
47,
-168,
63,
-326,
-40,
-45,
-170,
-122,
-282,
233,
-45,
-166,
-106,
52,
-32,
-170,
-63,
180,
-45,
-47,
67,
-126,
44,
-44,
-326,
335,
43,
144,
-73,
43,
-242,
389,
12,
-7,
287,
67,
-190,
102,
-39,
17,
-5,
-6,
129,
55,
54,
-14,
-136,
-181,
63,
-322;
