memory_initialization_radix=10;
memory_initialization_vector=
0,
0,
0,
0,
0,
0,
0,
0,
0,
0,
0,
0,
0,
0,
0,
0,
1,
0,
0,
0,
1,
0,
0,
0,
30,
0,
0,
0,
0,
0,
0,
0,
-56,
58,
-1,
-48,
-57,
1,
0,
0,
0,
0,
0,
0,
0,
0,
0,
0,
0,
0,
0,
0,
0,
0,
0,
0,
0,
0,
0,
0,
0,
0,
0,
0,
0,
0,
0,
0,
0,
0,
0,
0,
0,
0,
0,
0,
0,
0,
0,
0,
0,
0,
0,
0,
0,
0,
0,
0,
0,
0,
0,
0,
0,
0,
0,
0,
0,
0,
0,
0,
0,
0,
0,
0,
0,
0,
0,
0,
0,
0,
0,
0,
0,
0,
0,
0,
0,
0,
0,
0,
0,
0,
0,
0,
0,
0,
0,
0,
0,
0,
0,
0,
0,
0,
0,
0,
0,
0,
0,
0,
0,
0,
0,
0,
0,
0,
0,
0,
0,
0,
0,
0,
0,
0,
0,
0,
0,
0,
0,
0,
0,
117,
-63,
39,
-54,
1,
0,
0,
-16,
116,
-63,
39,
-54,
1,
0,
0,
0,
0,
0,
0,
0,
0,
0,
0,
-48,
-32,
-87,
-63,
-55,
1,
0,
0,
0,
0,
0,
0,
0,
0,
0,
0,
56,
57,
-1,
-48,
-57,
1,
0,
0,
0,
58,
-1,
-48,
-57,
1,
0,
0,
0,
0,
0,
0,
-1,
-1,
-1,
-1,
-1,
-1,
-1,
-1,
0,
0,
0,
0,
48,
80,
-68,
39,
-54,
1,
0,
0,
32,
80,
-68,
39,
-54,
1,
0,
0,
2,
0,
0,
0,
2,
0,
0,
0,
30,
0,
0,
0,
-57,
1,
0,
0,
0,
0,
0,
0,
0,
0,
0,
0,
0,
0,
0,
0,
0,
0,
0,
0,
0,
0,
0,
0,
0,
0,
0,
0,
0,
0,
0,
0,
0,
0,
0,
0,
0,
0,
0,
0,
0,
0,
0,
0,
0,
0,
0,
0,
0,
0,
0,
0,
0,
0,
0,
0,
0,
0,
0,
0,
0,
0,
0,
0,
0,
0,
0,
0,
120,
60,
-1,
-48,
-57,
1,
0,
0,
0,
0,
0,
0,
0,
0,
0,
0,
0,
0,
0,
0,
0,
0,
0,
0,
0,
0,
0,
0,
0,
0,
0,
0,
0,
0,
0,
0,
0,
0,
0,
0,
0,
0,
0,
0,
0,
0,
0,
0,
0,
0,
0,
0,
0,
0,
0,
0,
0,
0,
0,
0,
0,
0,
0,
0,
-96,
119,
-63,
39,
-54,
1,
0,
0,
-112,
119,
-63,
39,
-54,
1,
0,
0,
0,
0,
0,
0,
17,
0,
0,
0,
-48,
-32,
-87,
-63,
-55,
1,
0,
0,
0,
0,
0,
0,
0,
0,
0,
0,
16,
107,
-68,
39,
-54,
1,
0,
0,
0,
107,
-68,
39,
-54,
1,
0,
0,
3,
0,
0,
0,
3,
0,
0,
0,
22,
0,
0,
0,
17,
0,
0,
0,
120,
60,
-1,
-48,
-57,
1,
0,
0,
0,
0,
0,
0,
0,
0,
0,
0,
0,
0,
0,
0,
0,
0,
0,
0,
0,
0,
0,
0,
0,
0,
0,
0,
0,
0,
0,
0,
0,
0,
0,
0,
0,
0,
0,
0,
0,
0,
0,
0,
0,
0,
0,
0,
0,
0,
0,
0,
0,
0,
0,
0,
0,
0,
0,
0,
96,
61,
-1,
-48,
-57,
1,
0,
0,
0,
0,
0,
0,
0,
0,
0,
0,
0,
0,
0,
0,
0,
0,
0,
0,
0,
0,
0,
0,
0,
0,
0,
0,
0,
0,
0,
0,
0,
0,
0,
0,
0,
0,
0,
0,
0,
0,
0,
0,
0,
0,
0,
0,
0,
0,
0,
0,
0,
0,
0,
0,
0,
0,
0,
0,
0,
-25,
96,
3,
-54,
1,
0,
0,
-16,
-26,
96,
3,
-54,
1,
0,
0,
0,
0,
0,
0,
13,
0,
0,
0,
-48,
-32,
-87,
-63,
-55,
1,
0,
0,
0,
0,
0,
0,
0,
0,
0,
0,
-24,
58,
-1,
-48,
-57,
1,
0,
0,
-80,
59,
-1,
-48,
-57,
1,
0,
0,
1,
0,
0,
0,
0,
0,
0,
0,
0,
0,
0,
0,
13,
0,
0,
0,
-96,
93,
-68,
39,
-54,
1,
0,
0,
-112,
93,
-68,
39,
-54,
1,
0,
0,
4,
0,
0,
0,
4,
0,
0,
0,
14,
0,
0,
0,
0,
0,
0,
0,
96,
61,
-1,
-48,
-57,
1,
0,
0,
0,
0,
0,
0,
0,
0,
0,
0,
0,
0,
0,
0,
0,
0,
0,
0,
0,
0,
0,
0,
0,
0,
0,
0,
0,
0,
0,
0,
0,
0,
0,
0,
0,
0,
0,
0,
0,
0,
0,
0,
0,
0,
0,
0,
0,
0,
0,
0,
0,
0,
0,
0,
0,
0,
0,
0,
0,
0,
0,
0,
0,
0,
0,
0,
0,
0,
0,
0,
0,
0,
0,
0,
0,
0,
0,
0,
0,
0,
0,
0,
0,
0,
0,
0,
0,
0,
0,
0,
0,
0,
0,
0,
0,
0,
0,
0,
0,
0,
0,
0,
0,
0,
0,
0,
0,
0,
0,
0,
0,
0,
0,
0,
0,
0,
0,
0,
0,
0,
0,
0,
48,
5,
97,
3,
-54,
1,
0,
0,
32,
5,
97,
3,
-54,
1,
0,
0,
0,
0,
0,
0,
0,
0,
0,
0,
-48,
-32,
-87,
-63,
-55,
1,
0,
0,
0,
0,
0,
0,
0,
0,
0,
0,
-80,
59,
-1,
-48,
-57,
1,
0,
0,
-104,
60,
-1,
-48,
-57,
1,
0,
0,
2,
0,
0,
0,
0,
0,
0,
0,
0,
0,
0,
0,
0,
0,
0,
0,
0,
0,
0,
0,
0,
0,
0,
0,
0,
0,
0,
0,
0,
0,
0,
0,
0,
0,
0,
0,
0,
0,
0,
0,
0,
0,
0,
0,
0,
0,
0,
0,
-72,
63,
-1,
-48,
-57,
1,
0,
0,
0,
65,
-1,
-48,
-57,
1,
0,
0,
0,
0,
0,
0,
0,
0,
0,
0,
0,
0,
0,
0,
0,
0,
0,
0,
0,
0,
0,
0,
0,
0,
0,
0,
0,
0,
0,
0,
0,
0,
0,
0,
0,
0,
0,
0,
0,
0,
0,
0,
0,
0,
0,
0,
0,
0,
0,
0,
-112,
-30,
-25,
-48,
-57,
1,
0,
0,
-128,
-30,
-25,
-48,
-57,
1,
0,
0,
0,
0,
0,
0,
0,
0,
0,
0,
16,
-90,
-120,
-48,
-57,
1,
0,
0,
0,
0,
0,
0,
0,
0,
0,
0,
0,
0,
0,
0,
0,
0,
0,
0,
0,
0,
0,
0,
0,
0,
0,
0,
6,
0,
0,
0,
6,
0,
0,
0,
12,
0,
0,
0,
-57,
1,
0,
0,
-120,
70,
-1,
-48,
-57,
1,
0,
0,
0,
0,
0,
0,
0,
0,
0,
0,
0,
0,
0,
0,
0,
0,
0,
0,
0,
0,
0,
0,
0,
0,
0,
0,
0,
0,
0,
0,
0,
0,
0,
0,
0,
0,
0,
0,
0,
0,
0,
0,
0,
0,
0,
0,
0,
0,
0,
0,
0,
0,
0,
0,
0,
0,
0,
0,
8,
66,
-1,
-48,
-57,
1,
0,
0,
0,
0,
0,
0,
0,
0,
0,
0,
0,
0,
0,
0,
0,
0,
0,
0,
0,
0,
0,
0,
0,
0,
0,
0,
0,
0,
0,
0,
0,
0,
0,
0,
0,
0,
0,
0,
0,
0,
0,
0,
0,
0,
0,
0,
0,
0,
0,
0,
0,
0,
0,
0,
0,
0,
0,
0,
-80,
-80,
-25,
-48,
-57,
1,
0,
0,
-96,
-80,
-25,
-48,
-57,
1,
0,
0,
0,
0,
0,
0,
45,
0,
0,
0,
16,
-90,
-120,
-48,
-57,
1,
0,
0,
0,
0,
0,
0,
0,
0,
0,
0,
0,
0,
0,
0,
0,
0,
0,
0,
0,
0,
0,
0,
0,
0,
0,
0,
7,
0,
0,
0,
7,
0,
0,
0,
30,
0,
0,
0,
-57,
1,
0,
0,
-104,
63,
-1,
-48,
-57,
1,
0,
0,
-72,
63,
-1,
-48,
-57,
1,
0,
0,
-40,
63,
-1,
-48,
-57,
1,
0,
0,
0,
0,
0,
0,
0,
0,
0,
0,
0,
0,
0,
0,
0,
0,
0,
0,
0,
0,
0,
0,
0,
0,
0,
0,
0,
0,
0,
0,
0,
0,
0,
0,
0,
0,
0,
0,
0,
0,
0,
0,
-40,
67,
-1,
-48,
-57,
1,
0,
0,
0,
0,
0,
0,
0,
0,
0,
0,
0,
0,
0,
0,
0,
0,
0,
0,
0,
0,
0,
0,
0,
0,
0,
0,
0,
0,
0,
0,
0,
0,
0,
0,
0,
0,
0,
0,
0,
0,
0,
0,
0,
0,
0,
0,
0,
0,
0,
0,
0,
0,
0,
0,
0,
0,
0,
0,
80,
-35,
-25,
-48,
-57,
1,
0,
0,
64,
-35,
-25,
-48,
-57,
1,
0,
0,
0,
0,
0,
0,
15,
0,
0,
0,
16,
-90,
-120,
-48,
-57,
1,
0,
0,
0,
0,
0,
0,
0,
0,
0,
0,
-24,
58,
-1,
-48,
-57,
1,
0,
0,
-48,
62,
-1,
-48,
-57,
1,
0,
0,
1,
0,
0,
0,
0,
0,
0,
0,
0,
0,
0,
0,
18,
0,
0,
0,
64,
61,
-1,
-48,
-57,
1,
0,
0,
-48,
62,
-1,
-48,
-57,
1,
0,
0,
2,
0,
0,
0,
0,
0,
0,
0,
1,
0,
0,
0,
-57,
1,
0,
0,
-80,
59,
-1,
-48,
-57,
1,
0,
0,
-48,
62,
-1,
-48,
-57,
1,
0,
0,
3,
0,
0,
0,
0,
0,
0,
0,
2,
0,
0,
0,
30,
0,
0,
0,
0,
0,
0,
0,
0,
0,
0,
0,
0,
0,
0,
0,
0,
0,
0,
0,
8,
0,
0,
0,
8,
0,
0,
0,
30,
0,
0,
0,
23,
0,
0,
0,
-64,
64,
-1,
-48,
-57,
1,
0,
0,
-32,
64,
-1,
-48,
-57,
1,
0,
0,
0,
65,
-1,
-48,
-57,
1,
0,
0,
0,
0,
0,
0,
0,
0,
0,
0,
0,
0,
0,
0,
0,
0,
0,
0,
0,
0,
0,
0,
0,
0,
0,
0,
0,
0,
0,
0,
0,
0,
0,
0,
0,
0,
0,
0,
0,
0,
0,
0,
-24,
65,
-1,
-48,
-57,
1,
0,
0,
0,
0,
0,
0,
0,
0,
0,
0,
0,
0,
0,
0,
0,
0,
0,
0,
0,
0,
0,
0,
0,
0,
0,
0,
0,
0,
0,
0,
0,
0,
0,
0,
0,
0,
0,
0,
0,
0,
0,
0,
0,
0,
0,
0,
0,
0,
0,
0,
0,
0,
0,
0,
0,
0,
0,
0,
16,
-61,
-25,
-48,
-57,
1,
0,
0,
0,
-61,
-25,
-48,
-57,
1,
0,
0,
0,
0,
0,
0,
-57,
1,
0,
0,
16,
-90,
-120,
-48,
-57,
1,
0,
0,
0,
0,
0,
0,
0,
0,
0,
0,
-24,
58,
-1,
-48,
-57,
1,
0,
0,
-8,
63,
-1,
-48,
-57,
1,
0,
0,
4,
0,
0,
0,
0,
0,
0,
0,
0,
0,
0,
0,
-57,
1,
0,
0,
120,
60,
-1,
-48,
-57,
1,
0,
0,
-8,
63,
-1,
-48,
-57,
1,
0,
0,
5,
0,
0,
0,
0,
0,
0,
0,
1,
0,
0,
0,
-57,
1,
0,
0,
64,
61,
-1,
-48,
-57,
1,
0,
0,
-8,
63,
-1,
-48,
-57,
1,
0,
0,
6,
0,
0,
0,
0,
0,
0,
0,
2,
0,
0,
0,
53,
0,
0,
0,
0,
0,
0,
0,
0,
0,
0,
0,
0,
0,
0,
0,
0,
0,
0,
0,
9,
0,
0,
0,
9,
0,
0,
0,
30,
0,
0,
0,
0,
0,
0,
0,
-24,
65,
-1,
-48,
-57,
1,
0,
0,
8,
66,
-1,
-48,
-57,
1,
0,
0,
0,
0,
0,
0,
0,
0,
0,
0,
0,
0,
0,
0,
0,
0,
0,
0,
0,
0,
0,
0,
0,
0,
0,
0,
0,
0,
0,
0,
0,
0,
0,
0,
0,
0,
0,
0,
0,
0,
0,
0,
0,
0,
0,
0,
0,
0,
0,
0,
-16,
66,
-1,
-48,
-57,
1,
0,
0,
0,
0,
0,
0,
0,
0,
0,
0,
0,
0,
0,
0,
0,
0,
0,
0,
0,
0,
0,
0,
0,
0,
0,
0,
0,
0,
0,
0,
0,
0,
0,
0,
0,
0,
0,
0,
0,
0,
0,
0,
0,
0,
0,
0,
0,
0,
0,
0,
0,
0,
0,
0,
0,
0,
0,
0,
96,
-60,
-25,
-48,
-57,
1,
0,
0,
80,
-60,
-25,
-48,
-57,
1,
0,
0,
0,
0,
0,
0,
-57,
1,
0,
0,
16,
-90,
-120,
-48,
-57,
1,
0,
0,
0,
0,
0,
0,
0,
0,
0,
0,
-8,
63,
-1,
-48,
-57,
1,
0,
0,
32,
65,
-1,
-48,
-57,
1,
0,
0,
7,
0,
0,
0,
0,
0,
0,
0,
0,
0,
0,
0,
-57,
1,
0,
0,
8,
62,
-1,
-48,
-57,
1,
0,
0,
32,
65,
-1,
-48,
-57,
1,
0,
0,
8,
0,
0,
0,
0,
0,
0,
0,
1,
0,
0,
0,
47,
0,
0,
0,
0,
0,
0,
0,
0,
0,
0,
0,
0,
0,
0,
0,
0,
0,
0,
0,
10,
0,
0,
0,
10,
0,
0,
0,
30,
0,
0,
0,
0,
0,
0,
0,
-16,
66,
-1,
-48,
-57,
1,
0,
0,
0,
0,
0,
0,
0,
0,
0,
0,
0,
0,
0,
0,
0,
0,
0,
0,
0,
0,
0,
0,
0,
0,
0,
0,
0,
0,
0,
0,
0,
0,
0,
0,
0,
0,
0,
0,
0,
0,
0,
0,
0,
0,
0,
0,
0,
0,
0,
0,
0,
0,
0,
0,
0,
0,
0,
0,
-8,
67,
-1,
-48,
-57,
1,
0,
0,
-32,
68,
-1,
-48,
-57,
1,
0,
0,
0,
0,
0,
0,
0,
0,
0,
0,
0,
0,
0,
0,
0,
0,
0,
0,
0,
0,
0,
0,
0,
0,
0,
0,
0,
0,
0,
0,
0,
0,
0,
0,
0,
0,
0,
0,
0,
0,
0,
0,
0,
0,
0,
0,
0,
0,
0,
0,
-96,
-34,
-25,
-48,
-57,
1,
0,
0,
-112,
-34,
-25,
-48,
-57,
1,
0,
0,
0,
0,
0,
0,
-57,
1,
0,
0,
16,
-90,
-120,
-48,
-57,
1,
0,
0,
0,
0,
0,
0,
0,
0,
0,
0,
32,
65,
-1,
-48,
-57,
1,
0,
0,
40,
66,
-1,
-48,
-57,
1,
0,
0,
9,
0,
0,
0,
0,
0,
0,
0,
0,
0,
0,
0,
-57,
1,
0,
0,
0,
0,
0,
0,
0,
0,
0,
0,
0,
0,
0,
0,
0,
0,
0,
0,
11,
0,
0,
0,
11,
0,
0,
0,
30,
0,
0,
0,
0,
0,
0,
0,
-40,
67,
-1,
-48,
-57,
1,
0,
0,
-8,
67,
-1,
-48,
-57,
1,
0,
0,
0,
0,
0,
0,
0,
0,
0,
0,
0,
0,
0,
0,
0,
0,
0,
0,
0,
0,
0,
0,
0,
0,
0,
0,
0,
0,
0,
0,
0,
0,
0,
0,
0,
0,
0,
0,
0,
0,
0,
0,
0,
0,
0,
0,
0,
0,
0,
0,
0,
69,
-1,
-48,
-57,
1,
0,
0,
0,
0,
0,
0,
0,
0,
0,
0,
0,
0,
0,
0,
0,
0,
0,
0,
0,
0,
0,
0,
0,
0,
0,
0,
0,
0,
0,
0,
0,
0,
0,
0,
0,
0,
0,
0,
0,
0,
0,
0,
0,
0,
0,
0,
0,
0,
0,
0,
0,
0,
0,
0,
0,
0,
0,
0,
-32,
-29,
-25,
-48,
-57,
1,
0,
0,
-48,
-29,
-25,
-48,
-57,
1,
0,
0,
0,
0,
0,
0,
-57,
1,
0,
0,
16,
-90,
-120,
-48,
-57,
1,
0,
0,
0,
0,
0,
0,
0,
0,
0,
0,
-48,
62,
-1,
-48,
-57,
1,
0,
0,
16,
67,
-1,
-48,
-57,
1,
0,
0,
10,
0,
0,
0,
0,
0,
0,
0,
0,
0,
0,
0,
-57,
1,
0,
0,
40,
66,
-1,
-48,
-57,
1,
0,
0,
16,
67,
-1,
-48,
-57,
1,
0,
0,
11,
0,
0,
0,
-1,
-1,
-1,
-1,
-1,
-1,
-1,
-1,
-57,
1,
0,
0,
0,
0,
0,
0,
0,
0,
0,
0,
0,
0,
0,
0,
0,
0,
0,
0,
12,
0,
0,
0,
12,
0,
0,
0,
30,
0,
0,
0,
-57,
1,
0,
0,
-32,
68,
-1,
-48,
-57,
1,
0,
0;
