memory_initialization_radix=10;
memory_initialization_vector=
-115,
160,
-70,
235,
-100,
-87,
-95,
92,
-31,
-89,
-59,
71,
-170,
-90,
-185,
-78,
-73,
-98,
-85,
-138,
-110,
-45,
-152,
-130,
-155,
-104,
-196,
-132,
-158,
49,
-57,
143,
-171,
-50,
73,
17,
-100,
-223,
-127,
-111,
62,
-68,
-116,
-108,
-166,
55,
-111,
-88,
-141,
-66,
-145,
-101,
-222,
-114,
-3,
-83,
-6,
-138,
18,
-71,
56,
-73,
1,
-88;
