memory_initialization_radix=10;
memory_initialization_vector=
16,
67,
-1,
-48,
-57,
1,
0,
0,
24,
68,
-1,
-48,
-57,
1,
0,
0,
13,
0,
0,
0,
0,
0,
0,
0,
1,
0,
0,
0,
-57,
1,
0,
0,
0,
0,
0,
0,
0,
0,
0,
0,
0,
0,
0,
0,
0,
0,
0,
0,
13,
0,
0,
0,
13,
0,
0,
0,
29,
0,
0,
0,
-57,
1,
0,
0,
-24,
69,
-1,
-48,
-57,
1,
0,
0,
0,
0,
0,
0,
0,
0,
0,
0,
0,
0,
0,
0,
0,
0,
0,
0,
0,
0,
0,
0,
0,
0,
0,
0,
0,
0,
0,
0,
0,
0,
0,
0,
0,
0,
0,
0,
0,
0,
0,
0,
0,
0,
0,
0,
0,
0,
0,
0,
0,
0,
0,
0,
0,
0,
0,
0,
-88,
70,
-1,
-48,
-57,
1,
0,
0,
0,
0,
0,
0,
0,
0,
0,
0,
0,
0,
0,
0,
0,
0,
0,
0,
0,
0,
0,
0,
0,
0,
0,
0,
0,
0,
0,
0,
0,
0,
0,
0,
0,
0,
0,
0,
0,
0,
0,
0,
0,
0,
0,
0,
0,
0,
0,
0,
0,
0,
0,
0,
0,
0,
0,
0,
48,
-27,
-25,
-48,
-57,
1,
0,
0,
32,
-27,
-25,
-48,
-57,
1,
0,
0,
0,
0,
0,
0,
41,
0,
0,
0,
16,
-90,
-120,
-48,
-57,
1,
0,
0,
0,
0,
0,
0,
0,
0,
0,
0,
24,
68,
-1,
-48,
-57,
1,
0,
0,
32,
69,
-1,
-48,
-57,
1,
0,
0,
14,
0,
0,
0,
0,
0,
0,
0,
0,
0,
0,
0,
41,
0,
0,
0,
56,
57,
-1,
-48,
-57,
1,
0,
0,
-24,
58,
-1,
-48,
-57,
1,
0,
0,
15,
0,
0,
0,
-1,
-1,
-1,
-1,
-1,
-1,
-1,
-1,
-57,
1,
0,
0,
56,
57,
-1,
-48,
-57,
1,
0,
0,
-80,
59,
-1,
-48,
-57,
1,
0,
0,
16,
0,
0,
0,
-1,
-1,
-1,
-1,
-1,
-1,
-1,
-1,
-57,
1,
0,
0,
56,
57,
-1,
-48,
-57,
1,
0,
0,
120,
60,
-1,
-48,
-57,
1,
0,
0,
17,
0,
0,
0,
-1,
-1,
-1,
-1,
-1,
-1,
-1,
-1,
61,
0,
0,
0,
56,
57,
-1,
-48,
-57,
1,
0,
0,
64,
61,
-1,
-48,
-57,
1,
0,
0,
18,
0,
0,
0,
-1,
-1,
-1,
-1,
-1,
-1,
-1,
-1,
-57,
1,
0,
0,
56,
57,
-1,
-48,
-57,
1,
0,
0,
8,
62,
-1,
-48,
-57,
1,
0,
0,
19,
0,
0,
0,
-1,
-1,
-1,
-1,
-1,
-1,
-1,
-1,
-57,
1,
0,
0,
32,
69,
-1,
-48,
-57,
1,
0,
0,
0,
58,
-1,
-48,
-57,
1,
0,
0,
20,
0,
0,
0,
-1,
-1,
-1,
-1,
-1,
-1,
-1,
-1,
-57,
1,
0,
0,
-112,
70,
-1,
-48,
-57,
1,
0,
0,
55,
4,
0,
0,
-57,
1,
0,
0,
16,
70,
-1,
-48,
-57,
1,
0,
0,
-71,
1,
0,
0,
-57,
1,
0,
0,
-80,
70,
-1,
-48,
-57,
1,
0,
0,
54,
4,
0,
0,
41,
0,
0,
0,
16,
70,
-1,
-48,
-57,
1,
0,
0,
-71,
1,
0,
0,
-57,
1,
0,
0,
-48,
70,
-1,
-48,
-57,
1,
0,
0,
42,
4,
0,
0,
-57,
1,
0,
0,
16,
70,
-1,
-48,
-57,
1,
0,
0,
-71,
1,
0,
0,
41,
0,
0,
0,
-16,
70,
-1,
-48,
-57,
1,
0,
0,
24,
0,
0,
0,
-57,
1,
0,
0,
48,
31,
24,
-19,
-57,
1,
0,
0,
1,
0,
0,
0,
0,
0,
0,
0,
52,
0,
0,
0,
46,
0,
0,
0,
78,
0,
0,
0,
61,
0,
0,
0,
78,
0,
0,
0,
76,
0,
0,
0,
0,
0,
0,
0,
0,
0,
0,
0,
0,
0,
0,
0,
0,
0,
0,
0,
-15,
4,
0,
0,
0,
0,
0,
0,
96,
71,
-1,
-48,
-57,
1,
0,
0,
-71,
1,
0,
0,
50,
0,
0,
0,
0,
0,
0,
0,
0,
0,
0,
0,
1,
0,
0,
0,
0,
0,
0,
0,
16,
70,
-1,
-48,
-57,
1,
0,
0,
17,
0,
0,
0,
0,
0,
0,
0,
24,
-74,
-48,
-25,
-57,
1,
0,
0,
-112,
71,
-1,
-48,
-57,
1,
0,
0,
0,
0,
0,
0,
0,
0,
0,
0,
78,
0,
0,
0,
61,
0,
0,
0,
78,
0,
0,
0,
76,
0,
0,
0,
98,
4,
0,
0,
-57,
1,
0,
0,
-96,
71,
-1,
-48,
-57,
1,
0,
0,
-71,
1,
0,
0,
57,
0,
0,
0,
16,
71,
-1,
-48,
-57,
1,
0,
0,
17,
0,
0,
0,
-57,
1,
0,
0,
-48,
68,
-1,
-48,
-57,
1,
0,
0,
-112,
71,
-1,
-48,
-57,
1,
0,
0,
0,
0,
0,
0,
0,
0,
0,
0,
78,
0,
0,
0,
54,
0,
0,
0,
78,
0,
0,
0,
77,
0,
0,
0,
24,
0,
0,
0,
-57,
1,
0,
0,
112,
-100,
40,
-21,
-57,
1,
0,
0,
1,
0,
0,
0,
0,
0,
0,
0,
0,
72,
-1,
-48,
-57,
1,
0,
0,
78,
0,
0,
0,
54,
0,
0,
0,
78,
0,
0,
0,
56,
0,
0,
0,
77,
4,
0,
0,
-57,
1,
0,
0,
-16,
71,
-1,
-48,
-57,
1,
0,
0,
-70,
1,
0,
0,
38,
0,
0,
0,
80,
68,
-1,
-48,
-57,
1,
0,
0,
75,
4,
0,
0,
-57,
1,
0,
0,
-16,
71,
-1,
-48,
-57,
1,
0,
0,
-70,
1,
0,
0,
0,
0,
0,
0,
80,
72,
-1,
-48,
-57,
1,
0,
0,
78,
4,
0,
0,
38,
0,
0,
0,
-80,
72,
-1,
-48,
-57,
1,
0,
0,
-68,
1,
0,
0,
0,
0,
0,
0,
0,
0,
0,
0,
0,
0,
0,
0,
20,
0,
0,
0,
-57,
1,
0,
0,
-48,
42,
-38,
-20,
-57,
1,
0,
0,
0,
0,
0,
0,
0,
0,
0,
0,
56,
1,
0,
0,
0,
0,
0,
0,
78,
0,
0,
0,
78,
0,
0,
0,
78,
0,
0,
0,
81,
0,
0,
0,
20,
0,
0,
0,
56,
0,
0,
0,
-80,
-72,
-120,
-128,
-57,
1,
0,
0,
0,
0,
0,
0,
0,
0,
0,
0,
22,
1,
0,
0,
0,
0,
0,
0,
78,
0,
0,
0,
78,
0,
0,
0,
78,
0,
0,
0,
81,
0,
0,
0,
77,
4,
0,
0,
-57,
1,
0,
0,
-80,
72,
-1,
-48,
-57,
1,
0,
0,
-68,
1,
0,
0,
-57,
1,
0,
0,
-112,
72,
-1,
-48,
-57,
1,
0,
0,
75,
4,
0,
0,
-57,
1,
0,
0,
-80,
72,
-1,
-48,
-57,
1,
0,
0,
-68,
1,
0,
0,
-57,
1,
0,
0,
16,
73,
-1,
-48,
-57,
1,
0,
0,
3,
0,
0,
0,
-57,
1,
0,
0,
-16,
71,
-1,
-48,
-57,
1,
0,
0,
3,
0,
0,
0,
-57,
1,
0,
0,
-80,
72,
-1,
-48,
-57,
1,
0,
0,
78,
0,
0,
0,
54,
0,
0,
0,
78,
0,
0,
0,
81,
0,
0,
0,
56,
4,
0,
0,
-57,
1,
0,
0,
80,
73,
-1,
-48,
-57,
1,
0,
0,
-68,
1,
0,
0,
-57,
1,
0,
0,
112,
72,
-1,
-48,
-57,
1,
0,
0,
55,
4,
0,
0,
-57,
1,
0,
0,
80,
73,
-1,
-48,
-57,
1,
0,
0,
-68,
1,
0,
0,
-57,
1,
0,
0,
-128,
73,
-1,
-48,
-57,
1,
0,
0,
54,
4,
0,
0,
-57,
1,
0,
0,
80,
73,
-1,
-48,
-57,
1,
0,
0,
-68,
1,
0,
0,
-57,
1,
0,
0,
-96,
73,
-1,
-48,
-57,
1,
0,
0,
42,
4,
0,
0,
-57,
1,
0,
0,
80,
73,
-1,
-48,
-57,
1,
0,
0,
-68,
1,
0,
0,
0,
0,
0,
0,
-64,
73,
-1,
-48,
-57,
1,
0,
0,
48,
52,
-28,
-22,
-57,
1,
0,
0,
80,
73,
-1,
-48,
-57,
1,
0,
0,
78,
0,
0,
0,
47,
0,
0,
0,
78,
0,
0,
0,
81,
0,
0,
0,
0,
74,
-1,
-48,
-57,
1,
0,
0,
1,
0,
0,
0,
0,
0,
0,
0,
24,
0,
0,
0,
28,
0,
0,
0,
-80,
-23,
21,
-21,
-57,
1,
0,
0,
1,
0,
0,
0,
66,
0,
0,
0,
16,
74,
-1,
-48,
-57,
1,
0,
0,
78,
0,
0,
0,
83,
0,
0,
0,
78,
0,
0,
0,
91,
0,
0,
0,
69,
4,
0,
0,
-57,
1,
0,
0,
64,
75,
-1,
-48,
-57,
1,
0,
0,
-64,
1,
0,
0,
0,
0,
0,
0,
0,
0,
0,
0,
0,
0,
0,
0,
70,
4,
0,
0,
15,
0,
0,
0,
64,
75,
-1,
-48,
-57,
1,
0,
0,
-64,
1,
0,
0,
-57,
1,
0,
0,
96,
74,
-1,
-48,
-57,
1,
0,
0,
71,
4,
0,
0,
0,
0,
0,
0,
64,
75,
-1,
-48,
-57,
1,
0,
0,
-64,
1,
0,
0,
15,
0,
0,
0,
-128,
74,
-1,
-48,
-57,
1,
0,
0,
72,
4,
0,
0,
-57,
1,
0,
0,
64,
75,
-1,
-48,
-57,
1,
0,
0,
-64,
1,
0,
0,
-57,
1,
0,
0,
-96,
74,
-1,
-48,
-57,
1,
0,
0,
73,
4,
0,
0,
15,
0,
0,
0,
64,
75,
-1,
-48,
-57,
1,
0,
0,
-64,
1,
0,
0,
0,
0,
0,
0,
-64,
74,
-1,
-48,
-57,
1,
0,
0,
74,
4,
0,
0,
67,
0,
0,
0,
64,
75,
-1,
-48,
-57,
1,
0,
0,
-64,
1,
0,
0,
-57,
1,
0,
0,
-32,
74,
-1,
-48,
-57,
1,
0,
0,
78,
4,
0,
0,
0,
0,
0,
0,
64,
75,
-1,
-48,
-57,
1,
0,
0,
-64,
1,
0,
0,
0,
0,
0,
0,
0,
75,
-1,
-48,
-57,
1,
0,
0,
20,
0,
0,
0,
-57,
1,
0,
0,
-112,
98,
-4,
-25,
-57,
1,
0,
0,
0,
0,
0,
0,
0,
0,
0,
0,
32,
63,
-1,
-48,
-57,
1,
0,
0,
78,
0,
0,
0,
92,
0,
0,
0,
78,
0,
0,
0,
95,
0,
0,
0,
20,
0,
0,
0,
-57,
1,
0,
0,
-112,
98,
-4,
-25,
-57,
1,
0,
0,
0,
0,
0,
0,
0,
0,
0,
0,
96,
77,
-1,
-48,
-57,
1,
0,
0,
78,
0,
0,
0,
92,
0,
0,
0,
78,
0,
0,
0,
95,
0,
0,
0,
77,
4,
0,
0,
1,
0,
0,
0,
64,
75,
-1,
-48,
-57,
1,
0,
0,
-64,
1,
0,
0,
-8,
127,
0,
0,
32,
75,
-1,
-48,
-57,
1,
0,
0,
75,
4,
0,
0,
67,
0,
0,
0,
64,
75,
-1,
-48,
-57,
1,
0,
0,
-64,
1,
0,
0,
-57,
1,
0,
0,
-96,
75,
-1,
-48,
-57,
1,
0,
0,
56,
4,
0,
0,
0,
0,
0,
0,
64,
75,
-1,
-48,
-57,
1,
0,
0,
-64,
1,
0,
0,
-57,
1,
0,
0,
-64,
75,
-1,
-48,
-57,
1,
0,
0,
55,
4,
0,
0,
-57,
1,
0,
0,
64,
75,
-1,
-48,
-57,
1,
0,
0,
-64,
1,
0,
0,
-57,
1,
0,
0,
-32,
75,
-1,
-48,
-57,
1,
0,
0,
54,
4,
0,
0,
-57,
1,
0,
0,
64,
75,
-1,
-48,
-57,
1,
0,
0,
-64,
1,
0,
0,
0,
0,
0,
0,
0,
76,
-1,
-48,
-57,
1,
0,
0,
42,
4,
0,
0,
-57,
1,
0,
0,
64,
75,
-1,
-48,
-57,
1,
0,
0,
-64,
1,
0,
0,
0,
0,
0,
0,
32,
76,
-1,
-48,
-57,
1,
0,
0,
-80,
-23,
21,
-21,
-57,
1,
0,
0,
64,
75,
-1,
-48,
-57,
1,
0,
0,
78,
0,
0,
0,
83,
0,
0,
0,
78,
0,
0,
0,
95,
0,
0,
0,
96,
76,
-1,
-48,
-57,
1,
0,
0,
1,
0,
0,
0,
-57,
1,
0,
0,
1,
0,
0,
0,
0,
0,
0,
0,
-128,
76,
-1,
-48,
-57,
1,
0,
0,
-12,
4,
0,
0,
0,
0,
0,
0,
-112,
76,
-1,
-48,
-57,
1,
0,
0,
-64,
1,
0,
0,
-57,
1,
0,
0,
0,
0,
0,
0,
0,
0,
0,
0,
2,
0,
0,
0,
0,
0,
0,
0,
32,
74,
-1,
-48,
-57,
1,
0,
0,
-128,
76,
-1,
-48,
-57,
1,
0,
0,
24,
0,
0,
0,
-57,
1,
0,
0,
48,
52,
-28,
-22,
-57,
1,
0,
0,
1,
0,
0,
0,
0,
0,
0,
0,
49,
0,
0,
0,
23,
0,
0,
0,
78,
0,
0,
0,
47,
0,
0,
0,
78,
0,
0,
0,
53,
0,
0,
0,
48,
52,
-28,
-22,
-57,
1,
0,
0,
80,
73,
-1,
-48,
-57,
1,
0,
0,
78,
0,
0,
0,
47,
0,
0,
0,
78,
0,
0,
0,
81,
0,
0,
0,
8,
77,
-1,
-48,
-57,
1,
0,
0,
1,
0,
0,
0,
0,
0,
0,
0,
24,
0,
0,
0,
-57,
1,
0,
0,
-80,
-23,
21,
-21,
-57,
1,
0,
0,
1,
0,
0,
0,
0,
0,
0,
0,
49,
0,
0,
0,
28,
0,
0,
0,
78,
0,
0,
0,
83,
0,
0,
0,
78,
0,
0,
0,
91,
0,
0,
0,
-80,
-23,
21,
-21,
-57,
1,
0,
0,
64,
75,
-1,
-48,
-57,
1,
0,
0,
78,
0,
0,
0,
83,
0,
0,
0,
78,
0,
0,
0,
95,
0,
0,
0,
104,
77,
-1,
-48,
-57,
1,
0,
0,
1,
0,
0,
0,
-57,
1,
0,
0,
1,
0,
0,
0,
0,
0,
0,
0,
-120,
77,
-1,
-48,
-57,
1,
0,
0,
-8,
4,
0,
0,
0,
0,
0,
0,
-104,
77,
-1,
-48,
-57,
1,
0,
0,
-64,
1,
0,
0,
17,
0,
0,
0,
-96,
76,
-1,
-48,
-57,
1,
0,
0,
2,
0,
0,
0,
0,
0,
0,
0,
40,
77,
-1,
-48,
-57,
1,
0,
0,
-120,
77,
-1,
-48,
-57,
1,
0,
0,
2,
0,
0,
0,
0,
0,
0,
0,
8,
77,
-1,
-48,
-57,
1,
0,
0,
104,
77,
-1,
-48,
-57,
1,
0,
0,
1,
0,
0,
0,
0,
0,
0,
0,
-96,
63,
-1,
-48,
-57,
1,
0,
0,
17,
0,
0,
0,
-57,
1,
0,
0,
24,
-74,
-48,
-25,
-57,
1,
0,
0,
-8,
77,
-1,
-48,
-57,
1,
0,
0,
-32,
77,
-1,
-48,
-57,
1,
0,
0,
78,
0,
0,
0,
30,
0,
0,
0,
78,
0,
0,
0,
95,
0,
0,
0,
98,
4,
0,
0,
-57,
1,
0,
0,
8,
78,
-1,
-48,
-57,
1,
0,
0,
-64,
1,
0,
0,
-57,
1,
0,
0,
-96,
64,
-1,
-48,
-57,
1,
0,
0,
24,
0,
0,
0,
-57,
1,
0,
0,
112,
24,
-37,
-20,
-57,
1,
0,
0,
1,
0,
0,
0,
-57,
1,
0,
0,
23,
1,
0,
0,
0,
0,
0,
0,
78,
0,
0,
0,
19,
0,
0,
0,
78,
0,
0,
0,
29,
0,
0,
0,
24,
0,
0,
0,
-57,
1,
0,
0,
112,
24,
-37,
-20,
-57,
1,
0,
0,
1,
0,
0,
0,
-57,
1,
0,
0,
6,
0,
0,
0,
0,
0,
0,
0,
78,
0,
0,
0,
19,
0,
0,
0,
78,
0,
0,
0,
29,
0,
0,
0,
24,
0,
0,
0,
0,
0,
0,
0,
112,
24,
-37,
-20,
-57,
1,
0,
0,
2,
0,
0,
0,
0,
0,
0,
0,
60,
1,
0,
0,
-57,
1,
0,
0,
78,
0,
0,
0,
19,
0,
0,
0,
78,
0,
0,
0,
29,
0,
0,
0,
108,
4,
0,
0,
-57,
1,
0,
0,
-72,
78,
-1,
-48,
-57,
1,
0,
0,
-81,
1,
0,
0,
0,
0,
0,
0,
64,
62,
-1,
-48,
-57,
1,
0,
0,
107,
4,
0,
0,
0,
0,
0,
0,
-72,
78,
-1,
-48,
-57,
1,
0,
0,
-81,
1,
0,
0,
-57,
1,
0,
0,
-24,
78,
-1,
-48,
-57,
1,
0,
0,
1,
0,
0,
0,
0,
0,
0,
0,
16,
62,
-1,
-48,
-57,
1,
0,
0,
-99,
4,
0,
0,
4,
0,
0,
0,
40,
79,
-1,
-48,
-57,
1,
0,
0,
-82,
1,
0,
0,
-57,
1,
0,
0,
-72,
60,
-1,
-48,
-57,
1,
0,
0,
69,
4,
0,
0,
-57,
1,
0,
0,
-104,
80,
-1,
-48,
-57,
1,
0,
0,
-63,
1,
0,
0,
-57,
1,
0,
0,
8,
79,
-1,
-48,
-57,
1,
0,
0,
70,
4,
0,
0,
-57,
1,
0,
0,
-104,
80,
-1,
-48,
-57,
1,
0,
0,
-63,
1,
0,
0,
4,
0,
0,
0,
88,
79,
-1,
-48,
-57,
1,
0,
0,
71,
4,
0,
0,
-57,
1,
0,
0,
-104,
80,
-1,
-48,
-57,
1,
0,
0,
-63,
1,
0,
0,
-57,
1,
0,
0,
120,
79,
-1,
-48,
-57,
1,
0,
0,
72,
4,
0,
0,
4,
0,
0,
0,
-104,
80,
-1,
-48,
-57,
1,
0,
0,
-63,
1,
0,
0,
0,
0,
0,
0,
-104,
79,
-1,
-48,
-57,
1,
0,
0,
73,
4,
0,
0,
0,
0,
0,
0,
-104,
80,
-1,
-48,
-57,
1,
0,
0,
-63,
1,
0,
0,
4,
0,
0,
0,
-72,
79,
-1,
-48,
-57,
1,
0,
0,
74,
4,
0,
0,
-57,
1,
0,
0;
