memory_initialization_radix=10;
memory_initialization_vector=
94,
172,
266,
451,
66,
-83,
-388,
-396,
261,
118,
99,
89,
207,
6,
-283,
-1,
-252,
104,
-3,
-45,
22,
75,
-25,
41,
-106,
226,
41,
-31,
-347,
205,
126,
9,
-39,
-618,
-392,
89,
-657,
84,
54,
-297,
-316,
37,
-74,
126,
-428,
101,
181,
64,
270,
-67,
-127,
245,
38,
94,
-296,
-139,
151,
80,
-26,
66,
106,
136,
-358,
-183;
