0024
003a
0006
0013
0003
ffdc
0017
ffee
fff7
001a
0026
0023
0007
001b
0011
001d
0028
fffd
fff0
fffa
000b
000f
0018
ffe9
ffef
ffdd
0008
0034
fff4
0013
001e
fff8
fff1
ffed
ffc6
002f
0022
ffca
0025
001c
fff2
ffee
002b
ffde
0011
ffff
001d
000f
fff3
fff7
ffd8
ffee
fff3
003e
fff6
0005
ffef
fff3
000f
0013
ffdd
fff6
fff4
0006
fff7
fff8
ffcc
ffca
001d
ffe2
ffe4
0016
0015
ffd5
0007
0007
001a
ffef
fff0
001c
fff4
ffe7
fffe
0009
fff9
002c
0032
000e
0013
ffe7
0002
fff1
fff5
0008
002b
ffeb
0017
0025
ffe0
ffe3
ffcf
003e
fffd
000a
0029
0005
0010
0018
0011
ffd8
0001
fff1
ffee
fffb
000a
fff6
ffec
fffb
ffec
0000
fffc
0000
0002
0031
0018
000b
0007
001d
0038
fff9
0016
fffc
ffea
ffe1
0025
0014
ffc2
ffee
0001
fffc
fffc
0017
0027
fff4
0017
000d
0025
0017
fffe
ffe6
ffe8
ffec
ffea
ffeb
0022
0038
0021
fff3
fff7
0024
ffcf
0033
0019
000a
ffe9
0035
ffe5
0023
ffee
0014
004e
fffe
0002
ffdd
004f
000b
ffff
ffe1
001d
0013
fff4
0057
0019
0010
0022
0009
0023
004c
000e
ffd8
0004
002a
fff8
fff2
fff6
0044
fffd
ffe5
0025
ffe0
fff1
ffe0
fffd
0017
0005
000c
0014
fffd
fff5
0005
000a
ffeb
fffd
ffef
fffa
0014
fffa
002d
0021
002c
ffd0
fff9
001f
ffe6
ffee
000b
001d
fff1
fffc
000e
0027
0026
ffd6
0005
0025
0007
0038
0002
001b
0009
0013
ffe1
001d
fff9
001e
001e
0026
fff8
0000
ffe1
0030
001f
ffed
ffdf
001b
0019
fffc
0010
0015
ffe1
0027
000c
001b
0007
fffd
fff2
0049
0010
fff8
000f
002c
fffb
ffff
ffe5
ffdb
ffe3
fff4
002b
ffe9
0003
0003
0011
0023
0035
000c
ffce
fff2
ffef
0045
0033
003a
0042
0024
0008
0011
0017
003f
0009
0012
0005
fff0
001b
001c
003e
002c
ffe2
fffa
0024
ffd8
ffe4
ffff
0001
003b
000d
002c
fff7
ffe9
ffeb
0005
fffd
001a
fffb
0013
fff4
ffe0
ffb5
ffd1
fffd
fff4
ffc4
ffda
ffdb
ffe1
000d
0005
0015
ffd8
ffda
ffe4
ffd2
ffd3
fff2
ffc7
0024
ffc5
0034
0057
0000
0012
ffe0
ffdc
0005
ffef
0005
001b
0014
0006
ffd3
ffdc
ffc7
0011
000a
001f
ffe8
ffde
0017
fff0
001d
0006
0003
fffa
ffec
0008
fff8
0001
0011
0022
0003
002a
ffec
0003
0003
0015
000f
0003
001e
0023
001d
0040
001d
fff1
ffe5
000f
0010
ffdf
ffbe
fffc
fff1
001b
fff4
ffdf
fff6
0003
001e
ffd9
fff2
ffee
fffb
fff1
0028
ffed
ffcd
0010
ffe8
ffd8
0014
ffc0
fff2
ffc3
0023
000c
000a
ffe4
002a
0015
ffd7
ffff
0019
ffe8
fff8
0017
0012
ffe9
001f
0025
0010
fff5
fffb
ffcf
0011
0003
ffdf
0033
ffeb
000f
fffc
fff6
001c
ffe3
ffec
000e
ffe3
0038
0019
0023
fffa
0029
002c
ffe5
ffdd
001f
ffeb
ffec
000c
fff1
fff1
0031
ffee
001b
001c
002a
ffff
0015
0022
fff9
0001
ffe3
ffdf
ffcd
000c
fff4
ffe0
fff8
ffd5
0025
0014
fff2
000f
ffc3
fff8
fff4
ffd2
0005
001a
ffe4
0033
ffea
ffe6
0023
ffe1
0058
0009
000d
fff9
001e
fff9
002c
0015
ffe4
ffc2
0027
ffe2
000c
fff7
0006
ffe8
ffeb
ffe6
002b
ffcf
ffe9
ffcc
003f
0025
001f
ffd2
ffe9
002a
0026
fff6
001f
fff3
0003
ffe0
0000
ffef
002e
fff6
fffc
0005
0020
ffd0
002b
fff4
fff0
000e
0020
fff9
000a
ffe9
000a
000d
0009
ffd2
0009
001a
ffef
fff4
ffd0
002e
ffe6
fff9
0020
002e
0036
fff8
ffe3
ffc1
0016
ffe1
fff3
002c
fff4
0009
001e
0019
fff3
001d
ffe2
ffe5
ffd5
ffea
0010
fff4
fff8
0029
ffe6
003b
0013
ffd5
000a
ffeb
0002
0001
fffb
000a
0042
fff6
fff6
ffd6
ffce
0006
0001
002e
ffeb
0014
0030
ffed
001c
0011
0023
ffee
0034
ffd5
0020
0007
0033
0011
ffee
ffe8
0049
ffc7
ffe4
ffe0
ffdd
002f
ffce
0037
fff7
ffb3
001a
ffc5
ffd7
fffd
fffc
000f
ffed
ffe0
ffeb
ffe5
000e
0011
000f
000b
fff8
002b
001b
ffdf
fff6
0031
ffdf
ffee
fff2
ffe5
ffce
fff3
0006
ffff
001b
ffe8
000a
0017
fff1
ffc6
ffed
0032
ffa0
ffdf
ffe9
0008
000f
0027
ffe9
001a
ffda
fff7
ffd7
ffde
0013
0005
ffe7
0009
001e
fff9
ffd8
001f
fffc
0023
000c
ffcd
0019
0016
0004
0025
ffce
ffd5
0013
fff3
000b
0018
0018
0011
0035
ffdc
ffe7
0005
ffe2
ffff
fff2
ffde
fff3
fff4
ffc8
fff0
0021
fffd
0027
ffd9
0008
ffa8
ffec
ffd7
ffd4
ffe8
ffda
ffe8
0003
ffe8
ffca
0008
ffe8
001f
0008
ffd7
fff2
0030
0024
ffea
0013
ffc6
fff8
ffcd
0023
ffff
ffe4
fff6
fff1
fff7
fffe
ffe1
003f
ff80
0001
0012
fffa
fff0
ffe8
0006
0022
ffea
ffb2
001a
fff7
ffe1
ffe7
0009
fffa
0009
0001
fffe
001b
fffa
0010
ffe6
000d
ffe6
0031
001c
0029
0012
fff3
ffff
0046
ffef
fffb
002a
fff8
000c
ffec
0011
0011
0014
0039
0034
0021
002b
001e
ffe6
000f
000b
0009
ffec
0023
0011
002a
001d
ffef
001b
ffa4
ffec
0044
ffef
ffc9
001e
ffde
fff3
0014
ffea
0020
0029
0032
fff0
0025
fff9
0004
ffea
002c
002d
003b
002e
0004
0001
ffd3
fff4
0003
ffda
0014
ffda
fff9
ffde
fffc
fff6
002d
0004
ffeb
0000
ffec
0021
ffde
fff0
ffec
ffda
ffe2
ffd8
000c
fff5
0004
ffef
0019
002d
0024
ffd8
fff4
ffec
fff9
ffe4
ffc8
001b
002a
ffd5
ffe5
0003
ffeb
ffce
ffce
ffd7
0023
000c
0009
000c
000c
fff5
fffd
ffeb
ffcd
0003
ffcb
ffff
ffea
000e
0033
ffc5
fff8
000c
ffdd
ffe7
001b
001c
fffb
0010
ffef
0032
ffee
001d
fff4
0014
ffee
ffde
0004
ffd1
ffde
ffef
ffdd
0012
fffb
ffe9
fffc
ffeb
ffcd
0000
0014
fff4
0016
ffe3
000c
0014
002e
0019
0007
fff0
0018
ffe6
0000
0040
ffd5
ffd8
001e
ffed
fff3
ffd7
ffd7
ffda
fff7
ffdf
ffd0
001b
0015
0029
001c
ffd5
fffd
ffdc
002c
0006
0026
000c
0000
0016
0004
0004
000a
0003
fffd
fff4
001a
fff4
0016
fff3
fffe
ffeb
ffef
ffe9
001c
0000
000f
fff0
fffc
ffde
ffe0
0008
0005
0008
0004
ffe6
fffc
fff5
fffc
fff7
ffef
fffe
000e
fff9
0002
fff5
ffe2
ffe5
000a
000a
ffef
ffed
0006
fff6
000f
ffdb
ffeb
0000
ffeb
fff4
ffe6
fff4
ffdb
fff7
0000
fff6
000e
0014
0005
0008
000d
fff1
ffe6
fff8
fffb
ffe0
0005
fffd
0001
0000
fff2
fff9
ffff
000c
fff9
0007
0017
fff6
ffe8
0009
0004
ffe7
fff4
fff1
0007
000b
fff3
fff4
fffc
0019
0023
fff8
fffc
fff5
ffee
fff6
0013
fffe
0008
fff6
fff8
fff4
ffd5
001b
0009
fffd
ffe1
0002
fff3
0010
000d
fffe
0006
000a
fffd
ffeb
0004
ffed
0018
fff4
000f
fffd
0004
000f
0015
fffc
fff5
000d
0014
fff9
001a
fff7
0003
fffc
fff6
000d
0000
0008
ffd9
0027
000a
0014
ffff
fff0
001f
0001
fff5
ffe0
000f
000b
ffe7
000f
fff4
0002
fff5
fff9
fff5
000a
fffa
0017
0005
0017
0025
fffd
ffed
0014
ffec
ffb9
0028
ffcd
000b
001d
ffcb
0010
ffd3
001b
ffe7
ffe8
0000
ffdc
0008
001d
fff4
ffdf
ffcc
0009
ffe0
002b
0008
ffd9
0021
fff9
0007
0024
ffce
ffc3
0022
0021
ffe0
000b
fff2
ffd1
0037
ffc5
ffcc
fff4
ffe3
0008
ffde
ffdd
0011
0020
ffe0
ffc2
0020
ffe0
fff1
ffe7
ffe5
ffdc
ffb2
ff95
000d
ffd2
fffd
0009
001f
0007
003d
000f
000d
fffd
002d
ffed
0005
0004
fff3
ffd2
0028
fffb
0017
ffdd
fff1
000f
ffd9
fff9
000f
ffef
ffe9
ffe3
fffa
ffb0
ffc9
ffd7
ffc3
fff8
000b
001a
000d
0008
ffe6
0009
000c
fff8
fff1
000a
ffc0
ffff
003c
0032
ffca
fff2
0013
0014
0031
0013
ffcf
001f
0040
000b
ffd5
fff3
ffdb
0019
fff4
ffeb
ffd5
0016
001b
ffdb
0025
0023
0012
0013
0005
001d
ffb8
002a
ff98
fff9
0048
0016
ffdd
ffe7
ffec
fff4
ffdf
ffbb
000c
0024
ffe9
0053
0013
0034
ffe0
ffe1
0037
0005
0019
0018
0020
ffda
001f
fffd
ffe8
fffd
ffe4
0008
ffc8
0005
fffe
0024
0054
0015
002f
002b
0036
001f
0016
ffe1
ffeb
000b
ffca
001e
001d
0000
000b
000b
001d
0026
fff7
fffc
000e
ffee
0003
ffcd
0010
ffd7
002a
fff8
ffd9
0021
ffff
001d
0031
ffdc
0008
fff2
0003
ffd7
fff7
fffd
fff3
fff5
0013
000f
0018
001f
fff7
0022
fff2
ffeb
0005
fffa
0004
fff0
0018
0026
0017
0005
0021
0039
002f
ffff
000f
000c
0007
000b
0009
ffe8
0030
ffc9
fff8
001d
ffdb
fff7
002e
0013
fff3
ffe9
fff2
0006
fff2
ffde
000c
0017
000b
001f
0020
002e
ffe1
001e
fff7
0001
003b
0009
000b
fff3
ffec
0009
0010
ffdc
001c
ffe6
ffcd
0007
fff9
0019
fff2
000f
ffe4
fffa
0000
ffec
ffdf
000c
001e
fff2
fff9
0012
0027
0004
ffe2
001a
ffa5
0009
ffe9
ffff
0008
0017
ffe1
ffc3
000b
fff7
0013
ffc5
ffff
ffe3
0010
000e
0012
0004
ffdc
0018
fff0
fff5
000e
ffe1
0009
0028
0024
001f
0005
0038
0021
fff1
ffec
ffea
001b
000a
fff8
0022
0008
fff2
0010
001a
0017
ffc1
002d
ffe2
ffe2
ffdc
0015
ffe7
ffcf
fff2
ffe2
000d
0000
0034
0000
0003
001b
0013
fff4
fff4
0009
fffb
0002
0029
0019
0016
001f
ffd3
fff5
0002
ffca
ffea
ffe5
ffc8
0018
fffa
ffea
fff6
000d
ffe5
ffe4
ffff
0024
001a
0008
fffd
ffe4
000d
fff3
fffd
001d
0002
fffd
0022
ffcf
ffd6
fff6
0012
fff7
0018
ffe1
0013
ffe7
fff6
0017
ffdf
fff2
ffdc
000d
000d
fff0
ffff
fff3
fff6
ffcf
0005
fff4
ffea
fff9
fff7
ffec
001b
fff9
ffd7
ffec
fff9
ffea
fff1
fffe
fffd
001b
0009
fff7
ffee
0003
0015
0014
fff9
fffb
0010
0000
ffdd
0013
ffe8
0016
ffde
0035
000a
ffd9
fff4
fff8
0012
ffe7
0014
fffe
0008
0014
ffee
ffdd
fff0
0007
001e
fff0
ffe8
fff3
001e
0029
0008
0027
ffe9
0004
0009
0006
001f
ffde
0002
0015
0022
0019
0011
ffeb
ffe6
001a
fff5
0039
0018
ffde
ffff
fff0
fff3
0033
ffdd
ffde
002c
0013
ffe1
ffde
003f
ffde
0018
ffdc
fff0
000c
0004
001c
0008
0000
fffa
fffa
0040
0039
0019
ffe7
ffdd
fff0
001f
002a
fff6
fff9
0028
ffe1
0005
001c
0008
0025
0017
0018
0006
ffdc
000e
ffff
ffe7
002e
fffb
ffe7
fffc
ffd9
fffa
ffd2
fffc
ffe2
000b
ffd8
ffe9
ffdf
0006
0004
0001
0018
000d
ffdd
fff9
0006
ffef
001b
ffa6
ffe7
000d
0018
0006
fff4
0006
ffec
fffc
0000
0005
0016
002e
000d
fff9
ffde
ffd7
ffff
ffea
ffba
001e
ffec
ffd8
0015
0005
ffd4
ffe8
ffea
0017
0023
0013
0036
ffe7
0017
ffff
0020
ffd8
ffe7
ffe7
0010
0010
000e
fff6
0027
fff7
ffff
ffd7
ffe7
fff4
0014
ffe0
000e
ffe4
000f
0014
fff7
ffd6
ffca
fff3
ffcf
ffed
001b
001e
ffff
ffd2
fff8
0023
fff3
ffec
0004
0017
0001
0010
ffe9
fff5
0027
fff8
000b
000b
fff1
ffbc
ffcf
ffeb
ffe6
ffff
000c
ffe0
fff1
ffba
0015
ffe5
ffd2
003a
ffa6
fff5
0048
fff3
005a
0027
0011
0018
ffc3
fffb
0001
ffdc
0014
ffec
0010
fffb
ffd6
0017
ffe8
fff9
ffef
fffb
000f
ffe6
fffa
0030
0010
002a
fff6
ffe7
001f
ffd6
fff4
ffde
0005
fff9
0009
fff7
0018
0002
ffeb
ffbf
0018
ffca
fff0
ffeb
0006
fff7
ffda
fff7
fffa
ffc6
002a
0009
fffc
ffe1
ffe2
0003
ffce
0014
ffec
002a
001f
ffd7
0011
ffed
0006
0001
0014
0032
ffc2
000a
0025
000e
ffdd
0012
000a
ffcc
0016
fff7
0039
001c
000e
0027
fffa
0021
ffec
fff7
fff7
ffe8
0032
fff3
0002
0017
ffee
000c
0011
ffe2
000a
ffd5
fff7
001f
ffe8
0027
fffb
ffdc
fffd
0022
001a
0018
fffc
fff3
ffef
ffff
ffb8
0020
ffee
fff4
002e
0019
0009
000b
fffe
002a
0038
fffe
0016
001f
0009
ffc4
004d
fffc
001f
ffe8
ffbc
ffef
0039
0009
0003
ffe0
0018
fff6
ffdb
0031
0021
001c
0032
002c
0009
ffe8
ffe0
0012
0064
0039
000d
0004
fff7
fffd
ffeb
fff1
ffff
ffc6
ffe4
ffeb
0028
fff5
ffe7
ffe6
ffc7
ffef
0027
ffed
ffe7
fffa
0014
ffc8
0011
0005
fff0
ffe6
ffe4
001b
fff6
0005
ffdf
0013
ffef
ffc7
0020
ffe9
000d
0030
0014
ffef
0027
0030
0011
0007
fffa
ffdd
ffd4
ffc9
ffff
0022
0009
003e
001d
001f
fff3
ffff
0032
000d
0019
0021
0049
0013
0003
ffc8
0026
001f
0042
0021
fff5
0000
ffdf
fff6
001b
0002
0026
0005
0028
002f
fffa
000e
fffa
ffff
fff3
ffe7
001e
fff5
fff5
fff2
000e
0019
ffe4
0012
000a
0016
fff2
fff6
fff3
0003
0012
ffd8
0005
fff3
ffe5
001f
0002
0016
ffca
000b
0016
ffef
ffdf
fff7
0010
ffd4
ffd4
0044
ffdf
fff1
001b
ffe3
0013
0014
fff6
ffee
0044
0006
ffe6
ffef
000d
ffe6
ffd9
0016
0024
ffd4
ffea
0001
0023
fff2
0004
fffa
0013
0015
ffe2
002a
001b
000d
fff1
0005
0020
000a
fff7
0021
002b
0012
ffda
fff5
002d
0002
0023
ffed
0016
0007
000c
0015
0025
fff0
ffe9
ffea
0033
fff7
fffd
0003
fff8
000b
000d
ffb0
ffef
ffca
fff3
000e
ffd2
fff1
fffa
0009
fffe
fff5
0019
0001
0036
001d
001b
fff3
001b
ffe5
0015
ffe0
0024
000a
0006
ffdb
0025
002c
ffd8
ffd4
0021
0001
0017
ffe0
0003
ffef
ffe4
0029
ffbc
0028
ffe5
fffc
ffe2
ffff
ffde
fffa
0021
ffdb
ffff
ffdf
ffee
000b
fff8
ffed
0020
0000
ffcf
0020
0017
0016
0012
0014
0008
fff7
ffff
ffd7
ffea
0000
fff6
002b
0016
ffec
0025
0000
ffd1
fffa
ffd2
0014
0025
001e
0017
ffea
fff2
0001
fff2
0019
0016
ffe9
0020
0027
ffed
0014
fffd
ffff
000f
fff5
002d
000f
0024
ffcf
0003
ffec
000c
ffe9
0028
0024
ffe4
0014
002b
ffe7
fff8
002b
0032
fff0
000b
0028
ffe9
001b
0004
ffd2
001d
fff1
0041
ffc4
000a
fff5
ffe9
0002
003b
ffd7
ffff
ffec
ffff
ffdb
ffed
fff7
ffec
0003
ffe8
fff3
0000
000a
0005
0016
0026
0012
001b
0010
ffbb
0017
ffd1
ffdf
001d
fffe
0024
0035
0005
0015
fff7
ffec
ffde
0010
ffd1
fff7
0012
ffef
fff8
0018
ffe1
0002
fff4
0003
ffd3
0010
0025
0016
fff7
ffed
0009
fff0
0008
0005
0006
ffe7
0011
0011
ffff
fff8
fffa
ffda
ffd0
ffee
0011
fffe
0009
ffb5
ffd6
0007
fffa
0005
ffe4
ffea
000c
001c
ffee
fff7
fff4
ffe7
fffe
ffd5
0005
0014
fff5
0004
0013
0002
ffee
ffd6
0000
fff0
0019
ffe1
ffe7
ffde
0004
ffe0
fff2
fff3
0025
ffdd
0003
ffe5
ffff
ffe5
fffc
ffe1
fff9
0018
0008
ffed
0009
001a
fff5
ffd5
fff5
0008
0032
000f
001e
0000
0004
ffd1
0030
fff9
fff8
0008
0009
000d
fffc
fff5
0018
ffff
0025
0014
0011
fff8
fff0
000b
ffe8
ffe2
ffe8
0005
0001
001e
fff5
fff9
0009
0018
0018
0006
ffd5
0008
0017
0006
ffef
0016
000e
fffc
0002
fff8
0014
ffd3
000e
000a
ffc9
000c
fff7
000d
fff5
fff3
000e
0005
ffed
000d
001e
fff8
ffe4
0009
ffff
ffe4
0002
ffca
ffe5
ffdf
ffe6
ffda
ffdb
fffd
0002
ffed
001f
ffdb
ffcd
ffd8
0002
ffed
ffff
0006
ffda
ffc3
fff4
000c
fffb
ffe5
ffca
000c
fff6
0005
ffcd
fff8
000e
0010
0023
ffc2
fffe
ffed
fff3
ffeb
ffe2
ffdf
ffb8
0002
fff0
0022
fffc
0009
ffed
0015
ffe9
0015
000f
ffdf
0006
ffe4
0017
fff5
ffbf
0011
fffe
0011
ffe6
0005
fff0
000e
fff2
000e
fff0
ffef
ffed
fffe
002b
ffe6
ffd4
ffe8
002d
ffe6
ffc6
ffe2
ffe9
fff0
fff8
0009
0008
0012
ffc6
0001
0022
0012
ffcd
001f
0034
0005
0013
fff7
001a
000e
001e
001a
0012
0004
0002
fff7
0009
ffdb
0002
0027
0016
0025
ffcd
ffcd
fffb
0024
ffda
ffe9
0009
0002
fffc
ffeb
ffdf
000c
ffe4
fff4
0026
fff7
ffdf
fff8
fff2
fff0
ff9d
0017
003d
ffe5
0028
ffec
0034
000c
0003
0007
fffa
ffe9
0014
0013
000a
fff7
ffd9
0029
0010
0009
0026
ffdd
ffff
0012
ffed
fff7
0034
ffec
0023
fff4
ffeb
0014
