0096
ff3c
0054
ffb9
ff21
0045
ff63
007d
fff1
ff68
009f
ffb1
0016
ff43
0089
ffd7
004d
ffd7
0081
0069
ff83
0033
ffea
00b0
0098
0022
ff76
ffed
ffac
ffb9
ffd9
0006
0025
00db
00bb
ff7b
007a
00ee
0061
004f
ff99
ffd1
0068
0071
ffa5
ffe0
ff98
ffb9
0008
ffca
ffda
0011
fff3
0013
0016
ffa1
ffd6
0026
ff9f
ffcf
ffa0
ffd7
0002
0067
ffae
fffe
0019
ffd0
fff9
fff5
ffcc
0077
ffbd
0020
0050
006f
ffe2
0003
0057
000f
ffb5
ffb9
001e
ffdc
fff8
fff7
0032
ffb9
ffaf
001a
0011
ffd6
ffdc
ffac
fffa
ffd4
0009
001e
0043
0034
ffda
fffb
002a
0008
ffdf
0026
ffea
ffef
ffcf
ffed
ffd1
0005
0023
0029
ffe0
ffd4
ffcf
0026
ffcc
000d
ff7d
0010
ffae
005d
0014
003c
0087
ff6e
007e
ffef
ffd4
ffb0
ffc3
001d
0078
ffb2
0026
ffd1
ffb6
fff8
0000
ffe0
ffa7
0051
fff6
0066
0005
0064
ff6d
ff85
ff8b
ffd4
0020
004c
ffdb
ff89
0042
ffe9
003b
0005
ffd9
0036
0074
002c
0000
0053
ffda
ffdf
0028
ffea
fff8
ffe5
ffdf
ff94
ff7b
fff3
0016
007a
ffbf
0011
0041
0050
000c
ffde
0041
ff9f
ff94
ffe9
0005
ff78
fff8
ffba
0007
0012
002f
ffde
ff66
ff6a
ff7d
0010
ff57
ffd6
ff97
ffc3
ff90
ff9d
0038
0019
ff79
0040
ffc5
ff84
001f
ff4f
0095
fff9
ff83
0077
fff9
ffcc
ffcc
0070
000b
005f
ffcc
ffc0
ffe6
ffee
ffd6
ffe3
0060
0031
0086
003b
ffda
0040
ff77
0066
ffd6
0049
0000
ffc9
0032
0049
ffaa
ffee
ffdd
007b
ffd1
0022
003b
ffcb
ff9f
ffce
ffb7
fff0
0000
ffc9
0022
ffa7
0030
ff70
ffb5
002f
ff96
000b
0026
ffb7
0041
ff8b
ff9e
ffd8
ffad
0043
ff9d
0002
007b
0058
002c
0033
ffcc
003e
ffbe
0043
0069
fff0
0007
0029
ff89
ffc7
ffdf
fff9
0012
0033
002f
ffb9
ffde
0037
001a
ffe4
ffe4
0002
0051
ffca
0006
0029
003f
003d
0019
ffce
000a
fffd
0010
ffe0
ffb9
0028
000d
ffd7
002b
0022
001d
0023
ffe5
ffae
0041
0035
ffe8
002a
ffeb
ffdc
ff94
001d
0070
0002
ffc7
ffd0
ffd7
ffb6
ffbd
ffe5
0034
ffb8
003c
ffba
001e
0012
ffad
0010
004b
0025
fff9
ffe3
ffad
0018
ff8d
ffb2
fffe
001f
ffe8
fffb
0017
0010
0014
0017
0041
0033
001a
ffb0
002c
000c
0020
001e
fff0
0056
ffce
ffc0
0040
ffe9
0044
001c
0005
fff8
0031
0022
0046
fffd
0036
002d
0013
ffe5
ffdc
0037
ffe2
0022
ffbe
0018
ffea
0022
ffdb
ffed
ffb7
003e
ff91
ffe7
0044
0009
ffd5
ffef
ff85
ffd3
ffce
ffd0
ffc4
002a
003e
ffba
ffa2
002e
001b
ffe4
ffec
ffe1
ffec
ff86
ffc3
fffc
0032
fff9
003c
ffec
ffc8
ff84
ffed
fff7
0001
0039
ffe4
0007
ffe3
ff95
ff8e
001a
fff1
ffc5
00cf
fff5
001c
0087
ffdb
ffb7
0025
fff3
0097
ffca
0005
ffbf
ffdc
004b
0031
ffee
fffb
ffb5
ffba
ffec
ffcc
0027
ffb3
ff9b
ffad
ffd7
fff1
ffb0
fff6
001a
005a
0029
ffc9
001c
ffeb
ffd7
0073
fff1
ffa1
0025
0019
ffd4
ffc7
0066
0014
ffae
ffda
0011
0042
ffb3
0018
0007
0015
ffcc
fff0
ffb8
fffd
0026
ffb2
003c
fff3
ffd8
fffa
ffd4
ffba
002a
ffa3
0037
0052
fffd
001e
003d
0050
0036
ffc3
ffc8
00e7
006c
ff91
003c
0071
0099
005f
ffe1
0000
ffbe
ffc0
003a
000d
000f
0007
ff84
001a
0092
ff63
ffea
0068
ffaa
0052
ff4c
ff88
fffc
ff6b
ffee
0083
004d
0005
ff6e
ff3b
ffc8
ffd8
0002
007a
ffcb
007a
ffb2
ffbf
ffec
0047
0047
004e
ffd2
fffe
ff92
001a
ffa4
fff1
ffc5
001a
0038
ffc7
ff92
005a
001b
ff99
0001
0016
ffe7
0008
ff74
004f
ff92
ffc2
0053
ffc9
fff5
0029
ffc4
ffed
fffe
ffdf
002c
003c
ffd6
004d
ff9a
fff1
ffe7
ffe8
fff0
ffe9
fff0
0006
002b
0034
ffbe
ff9e
ffd1
fffd
0017
003c
fff4
003c
ffba
ffe1
ffef
ffed
0001
0035
ffc7
001d
ffdb
ffbf
ffcb
ffc6
ffcd
0001
0023
ffc4
004a
ffcb
ffae
ffe3
fff4
0037
0023
ffe4
0020
0008
0021
ffff
002c
fff7
0019
ffdd
0019
001f
0029
ffff
0003
000d
ffdd
0004
000c
fffb
000d
ffe1
0006
ffc0
0037
0015
ffc9
002d
001e
001c
ffed
ffb7
ffd9
ffd7
ffe7
0002
ffa5
ff8c
0033
ff83
0038
0029
0022
ffcc
0033
fff2
0043
ffdb
ffd9
fff4
ffdc
ffe5
0033
002b
0010
fffd
0039
0046
ffd7
ffde
0033
0052
0014
0039
0041
fff6
ffbf
ffdf
001b
0044
002b
0035
004e
ffc2
ffd1
ffe3
ffd8
0052
0005
0006
ffcf
ffe3
0011
ffdf
ffed
0004
ffd1
ffe4
0017
0001
0018
001a
0012
0001
ffe9
0022
ffdf
0012
0008
002a
002e
0025
fff6
ffff
ffe4
0010
0018
001d
0046
0023
0007
001c
0008
ffe1
0038
000d
000a
fffe
0035
001a
0001
004f
0028
000a
0067
000e
000d
ffe7
ffce
005d
ffe1
0028
ffd0
fff6
fff4
005e
ffc5
ffbb
0065
ffc6
0016
ffc5
ffff
ffe7
0011
0007
ff81
0025
ffff
0019
fff2
ff6a
0057
0017
ff98
ffe5
ffd9
fffb
0011
ffb3
0099
0019
ffbd
ffe2
ffed
fffd
ffae
ffdb
ffe7
ffd9
fff7
ffaf
ffca
ffcc
fff7
ffba
ffb1
fff5
ffe8
0004
ffa5
ffd1
ffd8
ffec
0031
002c
ffcf
001a
fff4
0025
0007
fff9
0031
002d
0009
0021
004c
0025
001d
ffda
0043
000e
0035
ffd9
004d
0033
0022
ffe9
0008
003f
002f
ff9b
ffca
ffc5
0016
ffcd
0015
002c
ffc7
ffb3
fff2
000e
000f
ffc6
001f
0007
0019
0022
ffe2
ffd6
ffeb
ffdc
ffb8
0038
0018
ffeb
0081
ff7a
0037
0001
ffca
006b
ffff
fff2
ffb6
0054
ffd3
0015
000e
004b
0014
0013
0027
005f
ffd6
fff5
0025
0017
0033
002b
0000
0056
fffe
ffee
004c
0017
fff8
000c
0013
000a
fffd
000e
0007
ffed
ffe5
0034
fff0
ffe5
0003
ffc6
0005
ffb0
012d
ff20
0019
ff20
010c
ffd4
0058
ff86
0048
004d
00c7
0050
0063
ffbb
fefc
007c
ff86
ff97
005e
ff20
ff3c
0087
ff36
ffe2
00f9
0019
0000
00e3
015f
011f
ffce
ff8f
0056
ffea
ff2b
ff4f
ff10
ff81
000e
0005
ffd8
ff95
ffb0
0006
0002
ffa2
0004
0040
ffe5
ffe3
ff9f
002b
fff9
0043
ffd1
0027
ffac
ffd7
0020
ffec
ffc8
000b
ffbf
ffaf
0028
ffcd
fffa
fffd
ffca
ffe4
0022
ffd6
0003
ffe3
0004
ffee
0027
0012
0016
fff7
ffba
fffd
fff2
ffeb
0009
0018
ffcc
ffca
fff9
002d
001f
ffe7
fff6
fff3
ffde
0022
ffe5
001d
fffe
fffa
ffff
ffe8
ffae
ffd3
001d
0014
0013
ffd1
0042
0010
ffc2
0011
ffeb
0020
0003
ffe8
002a
001f
ffd5
0028
ff92
fff7
ffc2
ffb6
ffcf
002e
ffe9
0005
ffb5
ffa6
0013
ffdd
0018
003d
ffb7
ffef
ffd8
0013
000f
ff94
fff0
ffb5
ffd0
fff6
003d
0038
ffbb
ffc3
ffbe
0001
0011
ffd9
ffde
0040
0038
ffa8
ffa0
fff8
0002
ff6e
003f
ffe8
ffeb
ffe4
ffe0
ffe1
ff8a
ffef
0025
fff8
0026
ffb9
fff5
ffda
002f
ffda
0011
ffd3
ffd3
ffb9
0018
ffd6
fff9
0006
ffb4
0015
0043
0008
ffee
001e
fff9
ffd2
ff9d
ffd3
003e
0037
ffbd
ffef
ffa0
ffcf
001d
0036
0026
fff1
ffce
0043
ff8c
000e
ffbe
003f
fff3
ffd0
fff0
ffbc
0041
0045
0044
ffdc
ffd2
ffd0
0003
003b
ffd3
fffa
ffbe
0026
001a
ffc3
ffff
0045
ffad
ffec
0036
0021
0016
001a
0047
003e
ffc5
ffec
002b
ffca
0016
ffcb
002b
0035
001a
ffd4
003e
002c
ffeb
002d
0005
0041
001c
0016
0006
0017
0008
0043
002a
ffff
ffe7
002b
0029
ffe3
0028
ffe5
000e
0028
004d
0021
ffec
002a
0029
fff2
ffe1
002d
0007
0011
ffe5
007e
ffa4
ff85
ff9f
0010
008b
ffcb
ffad
001b
fffb
ff7d
ffbe
0008
ffd7
001b
ffd0
ff80
ff91
0003
ff80
ff9e
ffd1
003d
0062
ffd3
003b
0002
0011
ffce
0057
0009
000b
00c6
005c
ffe7
0072
ffe9
007a
ffe2
0013
0010
003b
ffb9
ffe2
001d
fff7
ffe7
ffd8
ffe9
000e
0019
0026
ffe2
ffcd
fff9
ffe8
0010
ffee
002e
ffbd
001f
0010
ffbe
fff6
0038
0057
0016
0035
ffef
ffc6
fffb
ffd2
0014
ffd5
002c
ffd8
ffea
ffcf
