0000
0006
000f
0006
0005
0017
001a
0000
fff6
0010
0006
0000
0019
0006
fffe
000a
0007
0015
0007
fff7
0015
0013
0012
0000
0007
fffd
0013
0006
000d
0011
fff1
0017
000f
001a
0006
0014
0000
0008
fffb
0005
0005
0015
0004
0002
fff4
0002
0001
0000
001f
0015
fffc
000c
0007
0009
fff9
fff3
0000
0000
0007
001c
0018
0015
0004
fff8
