0056
002e
0047
0078
0009
ffb9
fff4
ffbe
ffbc
004c
ffe2
ff9e
ffaa
ffd8
001e
0019
002a
0038
0065
0041
ffc5
0044
0026
0034
ff8a
0019
0008
ff86
001f
0068
0044
ffd9
ffea
002b
0045
005a
fff1
ff88
fff9
fffc
0017
003c
0013
ff74
004b
000a
ffc2
ffee
ffdc
ffc4
fff2
004a
0004
ffe8
0003
0045
004d
ffdf
006b
ff99
0043
ffbe
ffac
ffc1
ffda
004a
ffb8
ff91
0051
0048
ffd6
003f
000b
ffbe
ff81
0047
002a
001a
001e
0047
0004
ffd2
0020
fffb
002d
0009
ffc2
ffd9
000f
ffde
ff9a
006d
ffa2
0038
007b
0075
0058
0070
0007
fff5
ffc7
0068
0048
001b
ff9a
003f
ffde
ffae
ffba
0016
0054
ffe6
0036
ffc4
fff6
ffc6
ffda
ffc7
ffe9
ffea
000c
001c
fff8
000e
0017
ffe1
ffe5
ffd2
ffbf
ffd0
ffc6
ffe8
ffcb
0027
0015
002c
ffdf
ffed
ffd4
ffbc
0015
000b
0014
ffe0
0033
fffd
0056
ffde
0087
ffc2
ff96
0005
0006
0024
ff88
0036
ffeb
ffa4
0001
0049
fff7
0030
ffbb
ffb4
0042
0040
0009
0037
0033
ffb1
ffac
006a
fff0
0034
ffd6
0002
0011
ffde
ffd5
001f
002b
ffd3
ffbb
ffe7
ffe3
fff3
ffd6
ffc9
ffdb
fff4
003e
ffc9
ffe7
ffa9
0046
002f
002f
ffdb
ffdd
0005
005b
ffbb
003a
0009
005c
ffbc
ff85
ffcc
004c
0020
004d
0044
004c
ffd1
0016
ff9d
0016
0035
ffd1
ff90
ffcf
ffb8
0019
0005
0075
fff3
0012
0007
ffdb
001c
0065
ffff
fffc
ffee
007d
ff73
003d
0037
0027
ffb1
fffc
003c
ffa3
ff91
ffae
004e
ffde
004d
ffb7
fffa
0049
002e
0020
003c
001d
ffc5
fff8
0042
ffa1
ff97
0016
005b
0002
005a
fff6
ffca
ffe3
0089
fffe
ffdf
fffc
000c
ffc7
ffca
000d
005c
0011
ffb3
0004
0039
0028
ffcf
0087
ff9f
0052
ff92
ffde
ffa5
ff9c
ffbc
ffdc
001f
0058
ff90
ffa3
0006
005a
ffc1
002f
0062
004f
ffe6
ff9f
004a
ffca
fffe
ffc7
0027
ffd0
ffc5
0037
fff9
0019
ffb9
0022
ffcb
ffda
0020
ffcd
ffda
0070
003b
004e
0011
ffc9
0012
001b
000c
ffa4
0004
ffde
ffb3
ffa8
0064
0037
0019
0050
007b
ffd4
ff7f
ffd1
0030
ffe7
0000
ffa1
ffa7
002c
0005
0015
006a
0034
ffbd
0013
0013
ffc2
ffa4
0001
ffff
0026
0019
ffdd
ffaf
0043
ffe6
000f
0051
0036
ffd9
fff0
ffd9
003a
fff5
ffca
ffbc
fffe
ffc8
0012
ffcd
ffd1
0018
fff0
fff9
0026
ffd2
ffd0
0064
fff0
ffab
ff96
005f
004a
0052
0005
ffb0
ffc9
0056
ffb9
0056
003b
ffc2
ffc7
000c
fff5
ffec
ffd7
ffcf
ffdd
ffda
fff3
0015
0003
ffc0
0022
ffc7
003d
0047
003b
0085
0053
ffd1
ffca
0053
0006
0025
ffad
001d
ffa9
ffc8
ff9f
002b
0094
0060
ffa3
fff2
ffc6
0063
0050
ff89
ffcd
0037
0010
ffff
0063
ffc7
007d
ffb8
ffb9
fffc
fffb
ffe8
0006
fffd
000d
ffd1
004d
0074
002a
ff92
006b
ffbc
0050
fff6
001a
ff83
ffe0
fff2
ffb1
ffb4
fff1
fff2
0008
005f
fff7
0000
ffe4
0074
001f
0065
ffe1
fffb
0073
001f
ffc7
003c
fff1
0003
002b
0049
ff76
0040
0057
ffc7
0028
0054
0030
ff93
ffab
ffa5
002d
0036
001a
fff6
ffab
000f
0064
ffaa
fff2
003c
008b
ffc2
ff99
0021
0050
0000
fffd
0062
003d
ff92
ffef
002f
ffce
0058
006b
ff77
0008
ffb2
ffed
ffc0
ffde
ffab
ffd2
ffdc
fffe
ff97
ffde
ffd5
0074
ffe3
002f
0065
0077
ffca
ffda
0028
0032
0033
ffa7
003d
ffa4
0035
001b
0034
0019
ff99
005a
ffa9
0072
001b
ffe2
ffd0
ffc5
0022
0026
002b
ffc8
0000
0025
002a
fffc
ffd2
00a2
ffcb
0032
0014
ffec
ff90
ffe5
0000
0013
ffbd
0015
ffcd
ffc8
ffef
ffea
ffdd
0031
ffce
fffb
0037
ffd8
ffd3
ffe8
ffe1
fff5
fffd
ffe9
0005
ff8a
ffde
007f
ffc8
0004
008c
0030
ffb9
ffaa
003c
0010
0022
ffd2
0012
ffc3
ffb3
003e
0009
ffc1
ffb7
0038
ffc8
ffe8
0004
ffcf
fff7
0053
0042
001b
0017
ffe9
0039
ffd3
ffed
fffb
0056
ffce
ff88
ffb4
0003
002a
000b
0051
ffbf
0052
0057
ffee
fffa
ffeb
ffbd
0010
005c
ff87
ffd0
ff99
000b
fff6
0061
ffc2
ffb3
ffd9
ff9c
0074
ffc2
fff2
ffe2
0064
ffd1
ff8c
0039
0041
ffef
fffa
005a
0043
003e
ffc1
0039
ffc5
002b
003e
0055
fffa
0031
005a
ffae
0033
ffd6
0000
ff93
ffb1
ffb3
ffc8
ffe7
0017
ffca
ffba
0017
006a
0000
ff89
007c
fffd
0024
ffdb
0073
0015
fff5
0026
ffab
ffb7
fffb
ffd2
000f
000d
001b
ffb6
000b
ffda
ffe7
ffd7
002a
0008
0069
ff8e
ff9f
ffef
0040
0014
0078
ff97
ffd2
0020
ffe7
ffee
0036
0054
ffd3
fff1
0050
ffc1
ff81
0014
004e
ffd7
0024
ffd4
ffb9
0009
0095
0023
fff5
0024
0000
ffe3
ffd0
fff9
003c
fff3
fffb
ffe1
ffce
0046
ffbe
ffca
ffce
ffc6
ffd0
fff7
fff2
0036
fff0
001f
0026
0018
000a
ffc4
ffb4
0003
006e
ff9b
ffcc
ffce
ffcc
002c
0048
0055
0065
0016
ffd6
ffdd
006b
0009
003c
ff88
002c
ffbd
ff84
ffd8
0014
0081
0025
0032
0007
fff3
003e
005d
ff9b
ffbe
fff8
ffe1
003e
ff96
003d
ffcf
ffea
fffd
007f
ffb3
ffcb
fff1
0042
fffd
ffbf
ff95
0037
005e
ffd9
003e
0064
0043
ffc6
ff97
001e
0047
ffc2
0072
0082
0029
ffcf
ffba
ffa8
ffa6
006d
ff9c
ffb7
fff3
ffc7
005f
0035
005f
005b
ffe8
ff86
fff3
fff7
0039
ffd0
002f
ffe8
ffca
0066
ff97
005e
007c
0069
ffbe
ffbb
fffd
ffd6
003b
ffcb
0041
ffbf
0034
002a
ffc7
ffbe
ffce
ffd3
0017
0002
000c
ffb8
0004
ffe7
ffd5
ffc2
ffcc
0008
0002
0027
ffd9
ffc5
fff1
0014
ffba
0034
ffc0
fff9
0013
ffdf
001b
0043
ffda
ffc1
fffe
ffd6
ffeb
ffbe
fffe
ffd2
ffdc
fff4
ffbf
ffcf
ffcd
ffd5
fff8
ffef
000c
001c
0010
002c
ffe2
0017
ffc0
ffeb
ffed
ffd8
ffe9
0031
0008
ffbf
ffb0
0061
0037
005a
ffbf
ffa9
ffe8
001d
0007
0038
0030
ffb4
0031
0001
0028
0066
0078
ff82
0007
ffb3
0030
0027
004c
ffba
ffef
ffa1
ffdb
000b
003e
ffd9
0017
0059
006b
000b
ffb2
ff98
fff2
0015
ff7d
0055
ffd6
ffbe
003a
0019
0032
0037
004a
0030
ffb7
0031
0049
fff9
ff98
003b
ffc3
ffaa
ffee
004d
007d
ffdc
ffef
ffc6
0038
ff98
002c
0005
ffb8
ffaf
0072
ffb7
ffe3
0061
0036
ffbf
ffe4
0033
fff2
ffb9
002a
002d
ffb5
fffc
002c
ffbd
ffe6
ffc3
ffde
000f
ffc9
ffee
0013
ffdc
