memory_initialization_radix=10;
memory_initialization_vector=
-1029,
-1298,
-698,
396,
-434,
-101,
-366,
-634,
-548,
2210,
-232,
-447,
746,
1648,
-205,
-2303,
-1361,
1684,
1054,
1265,
-317,
1046,
-502,
1509,
2664,
296,
1786,
767,
1192,
962,
1777,
60,
-520,
2192,
592,
1925,
354,
719,
1790,
-2119,
-1354,
1254,
949,
-588,
534,
-431,
0,
-1230,
78,
-1035,
997,
150,
1875,
692,
-628,
-590,
2095,
-114,
0,
1303,
601,
2155,
1892,
-525;
