memory_initialization_radix=10;
memory_initialization_vector=
-16,
51,
-66,
-77,
20,
2,
0,
0,
-112,
80,
-96,
-77,
20,
2,
0,
0,
112,
44,
79,
-21,
20,
2,
0,
0,
48,
-57,
52,
-112,
20,
2,
0,
0,
48,
-56,
52,
-112,
20,
2,
0,
0,
32,
33,
-64,
-77,
20,
2,
0,
0,
-128,
53,
-66,
-77,
20,
2,
0,
0,
-48,
53,
-66,
-77,
20,
2,
0,
0;
